3E
00
00
3B
00
00
3F
04
3F
03
01
3C
01
04
3D
3D
05
04
3E
03
00
3B
00
01
3F
01
3C
03
04
02
00
01
3D
3F
00
3E
3C
02
02
3B
01
02
04
02
05
3F
03
03
3A
3C
02
04
3E
00
00
01
3F
03
03
3C
00
00
02
04
00
3F
04
3F
3F
00
3C
00
00
3D
38
3B
3A
37
05
06
39
3B
3B
3E
08
08
3E
02
3F
3B
3F
03
09
08
01
3D
3D
00
07
09
00
3D
02
3C
3E
00
06
09
3D
03
00
3F
3D
01
3B
01
02
3C
3D
3D
04
04
00
05
3F
3B
01
01
05
00
04
03
03
3B
04
3C
04
00
3C
01
3F
3C
3F
00
04
3F
03
00
00
01
3D
3C
3F
3C
3E
00
3D
3E
00
00
3E
00
00
01
00
3E
3F
00
3D
00
00
02
01
03
00
3D
02
3D
00
3F
3D
00
01
3F
03
01
3C
01
06
06
39
3C
38
07
0B
06
3D
37
04
05
01
01
00
3D
05
07
3E
3A
04
08
02
00
3E
04
02
39
3E
3E
04
00
03
04
00
01
00
03
3C
02
00
02
00
3F
00
02
3D
3D
3F
3F
02
03
00
05
3E
3E
3E
3D
3D
3C
3C
01
03
05
04
00
01
3D
02
3B
02
01
01
02
3E
04
02
03
00
03
03
02
04
00
03
00
03
05
01
3F
00
01
00
3F
04
03
3D
00
00
3D
3E
3A
39
3A
3A
01
00
03
04
06
00
3E
35
00
0E
11
05
3C
3F
05
0D
0B
00
37
02
03
08
02
00
00
00
03
3F
3D
06
01
01
36
3E
3F
3A
3F
02
02
3B
02
3F
01
00
06
07
07
3E
3B
37
0E
0D
04
3F
36
00
00
06
09
38
03
3B
02
3C
03
01
07
3D
02
3E
3D
3B
38
04
3C
05
02
03
38
36
07
12
0D
04
38
00
00
09
08
00
3E
03
04
3C
3B
3C
06
03
03
00
03
01
3A
3C
38
3E
35
3C
37
3D
3C
02
01
00
3D
3A
3A
0E
10
05
39
3A
03
09
0F
02
00
00
00
00
07
3E
04
02
07
02
37
09
3E
3F
00
03
04
00
02
3C
00
3C
01
3D
3F
03
05
3D
3E
00
02
00
3F
3D
02
05
3E
02
02
04
00
00
03
03
05
3F
02
03
3D
01
3F
03
3E
00
03
3C
3C
3E
03
03
3D
01
3E
3E
04
02
3F
00
01
01
3F
3D
03
00
02
3E
02
03
03
01
05
00
01
05
05
02
04
00
3C
02
37
3A
08
3D
03
3C
3D
30
3A
09
10
0A
3D
3F
3E
00
06
0B
00
3E
04
3E
3A
08
3E
36
04
06
3E
01
07
3D
38
3D
38
38
3F
01
3F
03
00
05
3D
38
02
0F
0A
3C
36
3A
09
12
0A
00
37
03
06
08
09
3F
3F
3D
08
39
01
08
04
03
3F
03
3C
3F
03
01
00
3F
3D
03
00
00
01
03
3E
3F
03
03
3E
3B
00
02
01
03
3C
02
3D
03
03
01
04
3D
3C
3B
03
02
3E
03
05
3C
04
01
01
05
05
02
05
03
01
3B
00
3D
02
01
00
3D
3D
04
03
03
3F
00
00
04
3F
03
04
3C
00
00
3E
01
02
0E
01
02
00
3A
3F
07
0A
00
02
3D
3E
3B
00
05
3E
00
3F
3A
37
03
00
3E
39
37
39
00
02
3F
3E
08
05
3B
39
3C
02
3C
3E
05
3B
03
00
04
3E
03
00
00
03
3B
3C
05
3D
3D
00
3F
00
3D
01
3C
00
03
01
00
00
3F
3F
3E
3D
3E
05
00
01
03
00
3E
3D
3F
01
3C
00
02
04
01
01
03
02
01
3F
3C
3F
00
00
00
02
03
3E
3B
3E
3E
03
3D
00
3F
3D
02
3E
01
3E
04
06
01
01
04
00
3D
3C
00
00
08
3A
37
3A
00
05
02
3B
3F
3E
3D
3E
00
00
07
06
3E
3B
00
3C
3D
3B
02
0B
00
3D
3C
3E
01
00
00
05
02
01
3F
02
01
3C
3D
00
02
02
3D
3B
00
00
01
3F
04
00
03
3D
02
00
3E
02
3B
04
00
00
02
00
02
03
3C
03
00
3F
01
04
3E
3D
03
3E
01
00
01
04
3E
3E
02
00
00
3C
04
00
00
3E
00
02
00
04
00
00
03
00
01
07
0D
09
0B
0A
04
04
03
00
09
08
09
00
3F
35
03
0A
08
3E
34
3D
3C
08
02
3C
3F
3C
05
3E
05
03
04
09
00
3F
02
04
07
3D
01
01
03
02
08
03
3B
3E
00
3C
00
3E
05
07
00
36
3C
3E
03
05
39
3B
3D
3B
06
03
00
00
01
00
3D
39
04
03
01
09
3F
00
01
00
3D
3F
02
00
06
3B
39
3E
02
04
3E
3B
39
3E
02
05
00
3D
02
03
00
02
3C
02
3C
3C
3E
0B
05
07
09
09
07
07
01
06
06
3C
06
3D
08
00
3C
33
03
0B
03
3B
38
37
3F
01
03
3C
3D
39
03
00
3E
3C
3D
00
01
05
00
3E
00
3C
3D
00
04
3F
02
3E
3F
3B
04
05
00
03
04
02
02
3B
3B
3C
01
3C
3C
3E
3C
00
00
3D
03
3E
3F
04
04
00
3D
3E
00
03
02
3E
3B
3C
3F
00
3E
3C
00
3C
3C
3C
3F
04
02
00
01
02
00
3C
3D
3D
00
3C
00
3F
05
04
03
00
3F
01
36
3E
01
04
01
07
0A
3E
00
3C
00
01
0B
04
36
36
3E
06
01
00
3A
3A
38
00
03
00
3F
03
01
03
04
00
3C
3B
00
3E
05
09
09
09
00
0B
04
00
3D
3E
00
02
01
3E
39
3A
01
07
3F
38
39
3C
05
02
00
3C
37
3E
3F
3D
3E
3A
08
05
3B
3E
3C
3D
3E
03
01
3E
03
3D
3C
01
3E
01
04
3E
3D
02
3C
04
3E
02
3C
3D
00
01
04
04
00
00
00
3F
00
3B
3C
03
3D
04
01
02
06
3F
00
01
03
3D
02
3D
00
04
01
01
00
03
02
01
00
3F
03
03
02
3D
05
00
04
05
00
3F
05
3F
04
3C
3F
3C
34
04
3E
05
10
05
02
00
05
03
01
3B
3B
3D
3C
01
0B
07
07
3E
3A
39
04
05
0B
01
3D
3B
03
3F
00
03
3B
3B
33
38
00
3F
3D
04
3F
02
03
3D
00
03
05
00
03
3C
3D
04
00
05
00
3E
05
04
00
3D
00
3E
03
00
01
03
01
3D
04
03
3D
04
01
3F
3D
00
3B
03
03
3F
04
3F
00
3D
00
02
02
00
3E
03
03
00
3E
01
00
04
00
00
00
02
00
04
02
3C
00
3C
3C
01
05
02
0D
01
39
00
00
03
01
3A
07
08
0F
3C
3B
3F
08
08
05
01
38
3C
03
03
3F
07
02
00
3B
3C
0D
03
06
3C
3E
3F
04
02
01
3B
00
3D
3C
00
3D
04
3E
01
03
3C
02
00
02
05
3E
3E
04
00
00
04
3E
00
03
02
3D
01
3C
3E
03
3F
3E
00
01
3D
3D
3B
01
3D
00
3F
3D
3F
3D
3E
00
3C
3C
04
00
3E
00
04
3D
3E
3D
00
00
3C
04
3D
05
3D
00
01
3E
05
3D
00
01
0A
0B
0D
07
3F
0B
08
02
3A
00
00
14
02
33
35
3E
02
11
00
39
35
00
3A
08
0C
01
00
3D
3E
05
06
07
07
3F
3A
3E
08
03
03
09
3A
03
03
01
00
01
38
03
06
3D
3C
0B
01
09
3D
3D
00
00
04
00
0A
3D
3F
05
3F
06
01
08
00
01
38
08
0B
05
0B
01
3A
3A
06
38
3C
07
07
04
38
34
3E
02
06
02
3D
3B
3A
06
3B
3F
05
3A
03
38
38
04
00
01
3A
02
3D
0B
0B
0C
0A
05
07
0C
04
00
39
03
01
14
05
3B
30
3B
05
0F
00
3E
36
3C
03
0B
01
00
3E
37
3B
05
02
09
00
3B
3A
3C
03
3E
00
02
3C
3C
01
04
00
03
01
01
3D
05
02
00
03
3C
01
3E
00
01
02
01
3C
3D
00
00
3C
05
00
3D
02
02
3E
02
3D
01
05
03
02
3F
01
01
01
3F
00
3E
3D
3C
3C
3D
05
01
3C
3E
01
3F
3F
3E
3F
00
00
03
03
04
00
3E
00
3D
02
00
00
3E
08
3E
0A
0B
3A
00
37
3D
0B
12
09
3D
3B
00
09
0A
04
3C
38
3A
04
08
3F
00
3E
37
00
01
00
04
07
3C
3A
3D
0B
3F
0E
0E
03
00
08
3F
04
05
3D
0B
02
35
3C
05
02
0B
3D
37
37
06
05
00
02
3A
3A
3B
39
07
00
03
3F
37
35
00
00
03
02
03
02
00
02
3D
02
02
3E
00
3C
3C
00
00
3F
01
3C
3E
03
3B
00
04
03
01
3C
00
3F
3F
04
3F
3D
3C
03
00
05
01
3C
01
05
03
01
3D
3E
03
3D
01
00
01
00
3D
3F
04
00
02
3E
04
00
3F
01
3F
3F
00
00
3E
02
3C
03
05
01
05
00
0E
05
04
02
01
03
3E
3B
3A
3D
3F
07
3B
00
37
3D
3E
3F
02
00
38
00
3F
00
3C
3C
01
06
02
3D
06
06
07
3D
3E
00
01
04
00
01
03
3E
3F
03
03
01
3C
03
3C
02
00
01
3B
3F
02
04
3F
04
3F
3D
3E
00
00
02
3E
3F
3B
04
3F
3C
00
00
01
00
03
3F
3F
3F
00
04
00
04
04
3E
00
3E
02
3F
01
00
3D
3D
3B
3E
01
00
04
3C
00
3C
00
01
3C
04
3F
04
01
04
01
3C
3F
3C
3B
05
3B
02
37
3F
00
3E
02
01
01
3E
02
3B
00
3D
05
01
02
3A
06
03
09
01
3F
3F
00
00
3D
0E
3D
03
3F
03
04
3D
04
00
3C
02
03
04
3B
04
04
05
02
3E
04
04
3E
00
04
04
03
04
3E
00
3E
02
01
3C
00
3C
3B
04
3E
02
3F
3F
00
04
00
04
03
03
3C
3E
3C
3F
00
01
04
02
3D
3D
04
00
01
3E
00
01
3D
03
02
3D
3E
3F
00
3E
04
3B
3F
00
03
3C
03
06
37
03
39
37
34
34
33
03
39
3C
3A
02
3E
02
38
00
03
0D
05
00
00
00
0D
0D
03
01
3D
06
02
07
00
00
09
36
04
00
3E
01
3D
3F
3F
38
05
00
39
3B
3E
08
00
3A
00
00
39
06
3C
36
3E
3E
0D
03
07
35
01
02
3F
08
07
00
39
3D
3E
39
03
02
39
3E
33
00
3C
3E
01
3F
3F
06
00
3D
3E
00
08
02
03
35
08
09
04
08
3C
3D
06
07
3F
0D
3E
00
05
00
06
08
3A
00
01
34
3D
36
32
3F
3D
38
39
3F
3E
01
3A
3D
01
08
02
00
03
05
07
08
07
3B
00
07
09
08
00
3C
3C
05
3C
3C
3E
00
01
3E
00
3F
04
04
02
00
03
3C
02
3D
04
3C
01
3C
03
00
04
3C
03
3D
3E
02
00
3C
3C
3F
01
04
03
00
3D
3C
04
3E
00
3C
3D
01
3F
00
00
00
3F
00
02
03
04
3C
3C
00
00
02
05
01
3D
00
03
01
3D
00
3B
3E
3D
00
06
3B
05
00
3A
04
03
3A
39
32
39
3C
00
38
00
3E
3D
03
38
00
3D
05
00
03
00
01
09
0A
00
3D
3E
02
09
3C
3E
00
05
38
02
02
3E
3E
35
35
3F
3B
3A
01
37
3A
00
0A
3E
3A
3C
3C
03
02
00
37
04
06
07
04
04
37
02
05
02
10
3D
3C
3B
00
3D
00
3E
3D
03
03
03
05
3D
3E
3C
03
03
04
3D
3E
05
3C
3D
01
3C
3F
02
04
00
3C
03
05
3D
00
3D
3E
01
02
02
3B
3F
02
00
3F
3E
04
3C
3C
03
3D
03
3D
00
3E
04
03
00
00
3E
3D
3E
01
3F
03
00
00
3D
02
3B
01
01
00
03
01
3F
3D
3B
02
02
3C
01
3E
04
3F
04
03
02
03
01
01
3C
3F
00
02
3E
02
03
02
02
00
02
3F
04
00
00
3C
04
00
03
3D
3C
00
3C
01
00
3F
03
03
3C
3C
03
3D
01
3F
00
3E
00
3F
3E
3E
01
03
00
00
04
04
00
3C
01
01
3C
3C
00
05
3C
3E
3F
3C
3D
04
04
3D
00
3C
02
3D
3E
3E
00
03
3E
00
04
00
00
00
00
03
02
3E
05
03
00
04
00
03
3C
04
05
3D
3B
3F
3D
01
02
00
03
00
3F
3C
01
3B
00
00
3D
01
00
03
03
3C
3C
3E
3C
01
3D
3C
01
02
3F
3B
00
02
03
00
03
3B
05
3D
3D
03
3F
03
3D
04
05
01
04
3D
3F
01
03
3E
03
3F
3E
01
3C
3C
01
01
02
00
3D
3C
05
3C
01
04
04
3D
3F
3C
03
3B
3C
3D
04
03
03
04
3E
3D
3D
01
02
01
3C
00
3E
3F
00
00
3C
04
3E
01
03
02
03
02
03
01
03
3E
3E
02
01
00
3B
00
02
3F
00
01
3A
3F
3E
3D
02
04
00
02
3C
00
3F
3C
00
01
00
02
01
03
00
00
00
00
3C
3F
3B
3C
3C
03
3C
3F
00
04
02
3D
05
3B
00
04
04
3F
3D
02
03
3E
00
3D
01
00
02
3F
3B
3E
3C
3F
01
3C
00
3B
3C
3C
3F
3E
00
03
03
01
00
3F
03
3D
03
3B
3C
01
3E
00
04
02
04
3E
3E
00
3F
3E
00
04
3D
02
02
02
01
3E
01
3E
3D
04
04
3C
04
00
00
04
00
3E
02
3F
3F
3E
04
01
3F
00
00
3D
00
3C
00
3F
3E
04
00
02
3D
00
00
01
3E
3F
3C
02
02
01
02
02
04
01
01
00
3D
01
01
3C
3F
3D
3D
03
04
00
01
3F
01
00
3E
3E
05
00
3E
00
3B
00
04
00
01
3B
3F
03
3D
3E
03
01
02
3C
03
3F
01
04
3C
01
3C
03
01
00
3E
02
3E
01
04
3C
3F
01
00
00
04
3F
01
02
3F
03
03
02
3F
04
3D
01
01
03
3C
00
3D
02
02
3C
00
01
02
04
02
00
02
3B
03
00
03
01
00
03
3D
01
02
3F
01
3B
3E
02
02
3C
01
00
05
3B
3F
3D
3D
00
3B
04
3E
01
3D
00
3C
03
03
03
3E
02
3C
01
3F
3C
3C
3B
00
3E
3D
04
3F
01
3F
02
01
03
01
3F
03
3F
3D
01
00
3C
00
3F
3E
3E
3E
3E
00
05
3D
3E
3D
00
00
3D
02
3C
04
01
00
3F
02
03
3D
3F
03
00
3D
3F
00
00
3D
3D
01
03
04
00
02
3C
02
05
02
3E
04
3B
00
3F
3B
3D
3C
01
00
02
3F
04
00
04
04
3C
3D
03
04
3C
00
3E
04
04
03
02
00
04
3E
00
3F
3D
3E
01
00
3D
00
00
3D
03
3C
00
3C
3C
00
04
05
02
04
3E
03
03
3B
3C
02
00
3D
3C
03
00
00
3B
04
3D
02
00
00
02
3F
3F
04
3C
02
3F
3F
03
00
3C
04
3E
04
3F
05
01
00
02
00
3E
02
03
00
05
00
3E
3E
03
3E
03
3B
00
3D
01
04
02
3F
3B
3E
3D
05
3E
02
04
01
3C
00
3F
03
00
00
04
01
02
3F
03
00
3F
01
3C
00
02
3C
3E
03
00
00
00
3E
04
00
3F
02
3C
3F
00
3F
02
3C
3F
3E
04
01
3C
01
00
04
02
3D
04
3F
3F
01
04
01
3B
3F
04
3E
3E
3C
3D
3D
01
01
04
03
00
02
03
3C
02
3D
04
3E
01
00
02
00
3D
02
03
3E
3D
3D
3E
00
00
00
3F
03
00
3D
3F
3D
3F
3B
00
3C
02
03
3D
3E
3C
01
00
3E
03
02
3C
00
3E
00
02
00
3D
03
3C
3F
02
04
05
3F
01
3C
3F
3F
01
3D
01
02
04
00
04
3B
3F
01
01
02
3D
03
3B
3D
00
3B
3B
3C
04
01
3F
00
3C
3B
3D
3B
02
3E
3F
3C
00
3F
3C
02
04
3D
02
3F
00
01
3F
04
02
3D
3D
3B
01
3C
3C
3D
3B
3C
04
03
04
3E
3E
3F
00
3D
00
3D
00
04
00
03
3D
00
3D
00
3E
3D
3B
3E
00
3F
3B
03
03
3D
00
03
3B
3C
02
00
01
3E
00
03
3F
3F
3B
00
03
3B
00
03
3F
3E
3F
3E
00
3B
01
3F
00
00
02
3D
3B
3C
3C
3E
04
3C
3D
3C
3E
00
3D
00
01
3F
02
01
05
00
04
03
02
02
3D
3D
01
01
04
00
3F
03
00
04
3E
3F
00
02
3C
3F
03
00
03
3E
3D
3D
3D
3C
02
01
3D
04
01
01
3E
03
3D
03
3E
02
3F
03
3C
3F
3F
3D
3E
3F
00
03
00
05
3E
3E
00
00
01
04
01
3C
3F
3F
3C
01
04
02
00
00
3E
00
04
3E
00
3D
3F
00
3C
01
3C
3E
03
05
00
3D
3C
3F
3E
04
3D
03
01
3F
04
02
00
3D
3F
01
04
3F
3E
3B
03
05
03
3D
03
3F
02
03
3C
01
02
3D
04
03
04
00
3E
3E
01
3F
04
04
00
3C
02
04
3F
3E
3F
00
3D
02
02
3E
3E
3E
03
02
01
00
01
04
01
3E
01
3E
00
3D
00
00
3D
03
04
3C
00
3C
3F
02
00
01
3E
04
3E
00
00
03
00
02
01
03
00
01
05
3F
3E
03
02
3B
01
3B
3E
02
02
3F
04
05
04
3C
3F
00
04
00
01
02
3E
3D
05
00
03
3B
3E
03
00
01
3C
05
3E
00
3D
3F
3C
3C
3F
3E
04
00
04
3F
00
05
3D
3F
05
3E
3E
00
3E
01
00
01
3F
3F
3F
02
03
3C
3D
3B
03
04
3C
0C
07
09
00
34
05
00
3D
3E
01
05
07
07
37
01
03
3C
05
3C
03
3C
39
35
02
36
00
3C
03
03
04
3E
00
05
0A
06
04
3F
00
02
00
04
3E
3E
04
3D
03
05
03
3E
00
3C
3E
3F
3D
03
02
3F
00
05
00
04
04
3F
3B
04
3E
05
3D
00
01
3F
04
3C
3E
00
04
02
03
02
04
3F
3F
00
02
3F
01
01
01
04
00
03
3F
3C
03
02
04
02
00
3D
3B
01
04
00
3F
02
3E
01
3C
3E
3D
3E
07
0C
05
04
3E
02
05
3E
00
3C
05
01
3C
3A
02
3D
3D
02
02
06
00
02
3A
07
0B
0A
01
38
38
39
3E
04
0A
00
3C
3F
04
00
00
02
04
04
3D
00
3C
3D
04
3C
3E
02
05
3B
3D
3E
04
03
03
03
3F
03
00
00
3F
02
02
00
04
3F
01
05
03
3F
3E
01
00
00
03
02
3E
3C
05
00
3F
3D
05
02
3D
3C
05
02
00
3C
03
3D
03
3C
3C
3C
04
05
3D
04
3D
3B
02
02
01
04
03
3B
0A
3E
37
04
00
04
01
3A
3C
00
08
00
02
39
37
3D
02
02
0E
3A
36
01
02
11
0D
38
39
3E
04
06
0B
01
3F
04
3C
3D
09
3A
03
3D
08
3A
04
04
3E
02
08
3C
0D
3C
00
03
3F
3D
0A
00
33
3E
3F
03
09
3E
36
00
04
3E
0A
01
00
3D
3F
02
0D
07
36
02
08
39
05
00
03
04
3E
3C
03
37
38
00
00
3E
07
00
32
09
02
0E
08
35
3F
39
01
01
0C
3C
00
03
03
0C
08
3D
38
01
03
06
00
3A
3D
3E
02
06
0A
31
3C
38
39
3E
07
3A
36
02
05
06
0C
3E
33
39
3C
0E
0B
02
04
04
05
02
3D
04
01
3E
3F
04
01
03
00
04
3D
01
01
00
04
01
00
03
00
00
3C
00
3E
03
04
3C
3D
05
3E
04
05
3F
3C
02
02
04
00
02
3C
00
01
03
3E
00
3D
3D
02
00
02
00
00
00
02
3D
01
02
03
3E
04
3D
02
04
00
01
3B
3E
3E
36
3E
07
3F
11
3D
3D
0E
05
00
00
36
35
3E
03
3C
3F
01
3A
39
02
00
3E
00
3A
3C
3B
08
08
0A
3E
37
3C
37
02
00
3D
3E
0C
3C
36
07
04
3F
07
06
03
0B
3D
38
3F
02
04
04
31
35
3C
02
02
04
39
31
01
05
06
06
00
33
3F
3F
07
11
3E
03
05
02
3D
3F
04
03
3F
03
3D
01
04
00
3C
01
02
03
3D
00
00
00
3F
3F
01
02
3F
04
00
01
01
3F
00
00
02
3E
3E
3B
3E
01
04
3B
3E
03
3E
03
00
3B
00
3D
01
3C
05
3E
03
3D
3C
02
03
00
3C
3F
3D
01
01
03
05
3E
04
03
00
3B
04
05
0A
00
37
3E
3B
3E
00
02
08
00
06
02
3C
00
3C
00
00
05
04
04
00
3A
37
3F
01
02
04
06
3E
3C
03
03
09
03
01
01
03
03
00
3D
03
00
3D
00
03
3E
00
01
03
00
3D
3E
3F
00
3D
04
01
3D
02
00
05
00
00
3B
3C
00
04
3D
01
3D
3C
3F
3D
3C
3F
00
02
02
00
3F
3F
3C
03
04
3C
3B
3C
00
00
3D
02
00
3E
3B
04
05
00
3E
03
03
00
05
3D
00
04
3D
3F
3F
3C
06
0A
3F
00
3D
00
01
37
03
3E
04
01
3B
3E
02
3E
01
02
00
02
03
3D
00
3D
01
02
05
37
00
3A
03
02
03
01
05
03
3C
3F
04
00
00
00
3F
3F
00
04
3F
3F
01
3F
04
04
00
3D
01
04
01
02
3E
3B
3E
00
04
01
00
3F
3F
3E
3E
01
03
04
02
3D
04
05
3F
00
04
3F
02
01
03
02
05
04
3D
03
00
3E
01
00
3D
3C
3E
00
03
03
01
05
3C
3D
02
3C
05
00
3F
08
01
04
09
00
00
03
06
04
3D
38
05
00
0A
03
3F
38
00
06
01
06
01
3F
3F
01
00
06
09
00
3C
01
00
05
0B
04
00
07
37
3C
0D
3D
01
04
04
00
06
3F
01
08
02
3A
01
3F
00
04
3D
00
07
3F
3A
03
07
05
05
3B
00
3E
05
01
04
3D
3E
3D
3A
3F
0A
08
00
00
05
36
03
3D
06
04
05
3E
05
3C
39
3D
3E
00
3F
3F
3F
07
01
09
04
39
3E
3C
04
00
04
00
3F
00
01
05
01
39
3B
3E
07
03
00
3D
00
00
03
03
3E
35
03
00
05
04
02
37
02
03
07
02
08
3A
3C
39
3C
09
0B
00
00
04
00
3E
03
03
04
04
04
3F
00
3F
00
04
3C
02
3D
00
00
3E
00
3E
04
3F
03
3F
3C
04
3F
3E
00
00
01
3F
3F
02
02
04
00
3F
3F
3F
3F
3F
3F
01
02
04
3B
04
3F
3B
03
3D
3E
01
00
03
3D
02
02
03
3F
00
01
05
3D
3C
3C
00
3C
3B
3E
04
3C
0B
3B
38
08
3B
05
00
38
36
3C
03
01
05
02
00
3B
3B
00
04
01
00
03
04
00
01
03
02
38
00
3D
06
08
08
06
03
3A
3C
07
03
3D
04
02
03
00
03
3E
01
04
3A
3E
39
3F
00
01
3E
06
3A
3A
02
3F
0A
04
01
00
3F
04
00
0A
3C
3D
01
03
3D
3E
3E
00
3C
3C
3F
05
00
3E
03
03
03
00
00
03
02
04
03
3F
04
01
05
05
04
03
04
3E
3E
3F
3E
03
00
00
3F
3C
00
04
04
05
03
01
00
3D
05
3E
3D
01
02
3D
04
3D
01
01
00
3D
3E
05
01
3E
04
3F
00
01
04
3E
00
3E
33
3F
3A
09
0D
01
08
03
02
00
37
00
3D
03
00
3E
06
01
02
34
3E
3B
08
01
0C
05
03
39
3C
3F
02
09
37
00
30
39
00
3E
3D
03
04
02
00
00
3E
05
3E
3C
04
00
03
3F
04
3D
03
04
00
03
00
3C
02
3C
00
3C
3E
3F
3E
3B
3E
3C
3C
3B
3D
3F
04
3D
3C
3C
04
00
3F
02
3D
3F
04
02
3C
3F
00
01
3E
03
00
3C
01
3B
00
3B
3F
3F
3C
3F
00
3D
00
02
00
3B
01
00
06
3B
35
3D
00
03
3D
3B
07
04
0A
3E
00
02
07
3F
00
0A
03
00
02
00
04
08
3A
36
35
01
0C
05
00
3E
01
3C
01
3D
05
04
3E
3E
03
3D
04
3F
00
3E
3B
01
3F
3D
04
00
3F
3C
3D
3F
02
3C
03
04
01
3B
00
3E
01
00
02
00
00
02
3C
00
04
03
00
00
02
3C
3F
04
00
00
3C
3D
00
3D
3F
3E
01
00
3C
01
00
3E
03
3D
3C
00
3E
3E
3C
3F
04
3C
3D
00
00
06
3E
07
3E
3C
06
09
3B
3F
3D
07
0F
02
00
37
00
3D
0A
05
02
3D
3B
34
08
0A
3A
00
30
36
07
08
03
01
3D
39
3C
08
38
09
04
39
08
3B
3E
3A
00
01
39
02
36
3D
05
3B
0F
02
00
01
06
3D
01
0B
38
3B
39
35
00
05
3F
3A
3C
35
06
05
01
3E
01
3B
00
04
3F
37
0B
00
02
3D
3C
02
03
3E
06
06
00
37
03
36
00
0A
3A
37
30
3D
09
08
05
3A
00
39
03
04
02
00
3B
3B
0A
0B
39
38
00
05
10
01
3D
36
3B
02
14
02
3F
00
00
3F
0A
06
3F
3A
2D
34
04
09
07
02
39
36
03
00
3F
3E
3D
3C
01
04
00
00
3E
3E
3F
01
00
3F
01
00
00
03
3E
04
3E
04
02
02
3F
3F
3D
3B
03
05
01
3E
01
00
3C
3C
01
3F
3F
3D
02
3E
3F
02
05
04
02
00
04
04
02
01
01
00
03
01
3C
3D
3C
3F
00
3E
3C
3D
02
00
00
00
3F
3E
03
00
39
3E
32
04
0F
37
03
3C
39
09
13
00
3F
3D
38
03
04
07
03
3B
3F
3D
08
3C
03
00
39
3B
00
05
0A
05
3C
3D
3F
01
3C
0B
0E
3B
02
02
3A
3C
07
3D
03
02
3B
35
0A
3D
0E
3E
3D
3A
00
3E
00
0A
3D
37
3C
3A
05
08
05
3C
36
34
3F
01
00
04
05
3D
00
3C
03
05
3E
00
3F
3F
04
3C
00
00
3C
02
03
3C
02
00
04
3B
04
3F
04
3E
00
01
03
02
02
3F
3C
00
04
04
3D
03
01
3F
02
00
00
3D
3F
04
03
3D
00
03
3D
3F
03
04
04
3C
3B
03
00
04
03
3E
01
01
3E
04
00
3F
04
04
3B
3A
34
3B
01
06
3B
37
02
00
3B
04
01
08
3E
00
3E
05
05
09
00
3E
02
00
06
05
01
3F
3E
3F
01
02
05
0D
03
01
00
3D
3D
00
3D
01
3C
3C
3E
03
04
3C
3D
01
00
3C
01
3C
00
02
04
3C
03
00
04
05
3F
00
3F
04
3E
03
02
05
03
04
3C
3E
3D
02
01
02
02
00
02
3E
03
3C
3C
01
05
3F
05
3F
3C
00
02
3E
05
3E
3E
3E
3C
04
3D
3E
3F
04
02
01
3D
02
3D
02
06
04
00
00
00
09
3A
3D
39
09
04
01
02
00
00
3F
07
03
3F
04
03
00
01
00
03
05
39
03
00
3D
3C
3C
3D
3F
00
01
00
00
01
3D
04
02
03
3C
03
00
3B
05
00
01
04
03
04
3C
05
01
00
3C
3E
05
03
04
00
3E
01
3E
3D
01
04
3D
3C
00
3F
3E
00
00
3F
04
03
01
3F
00
03
00
3B
00
03
3F
3F
00
03
04
3D
03
02
01
3E
3E
05
01
3F
3F
03
3F
03
3E
00
3C
38
00
3A
38
03
08
06
02
32
00
11
10
09
00
3D
3E
0E
0D
04
04
3F
39
02
07
09
05
3B
3D
00
00
3D
01
07
37
03
38
38
00
03
01
04
05
02
04
02
00
02
06
3A
37
36
02
0C
07
00
00
02
00
09
05
3F
05
3A
00
3E
02
3E
09
3D
3A
3A
3B
01
3E
3F
01
02
0A
3D
3F
3C
02
0D
0C
00
39
3D
00
04
05
3F
00
02
3C
3F
04
03
07
3C
3D
03
3E
3A
3D
00
04
01
38
36
3D
36
01
00
02
02
02
38
3F
0B
13
02
3A
3E
03
04
0F
07
00
37
3C
06
01
04
0B
39
05
01
00
03
00
02
01
3E
3C
3C
00
01
3D
00
03
03
3F
01
3C
03
3C
00
3F
3C
3C
3D
3D
04
00
3D
00
3E
00
04
3C
3C
01
03
3B
01
05
00
3D
02
03
00
3C
00
3D
3C
03
03
02
3C
04
03
04
00
00
3C
03
00
3B
05
00
03
00
00
04
04
3E
00
03
00
00
04
04
3E
06
00
3E
04
3B
31
00
3B
0C
01
3B
37
39
05
07
0B
39
3C
3E
3D
3F
0B
03
39
02
00
3F
09
04
00
3C
01
3E
01
3E
09
3B
3E
3C
34
38
00
3B
07
03
00
05
37
3F
04
0F
00
3E
33
00
0E
0E
04
04
00
39
06
09
01
04
3D
3B
3B
3C
05
08
02
04
3F
3F
3D
00
3C
03
04
01
05
02
03
04
3D
00
02
3F
3D
3F
3E
3F
3C
3F
03
3E
02
3C
3D
00
04
3C
02
00
3C
3D
02
3E
03
3D
03
3E
01
01
3C
3E
3F
00
02
3E
00
3E
3E
03
3F
3C
00
00
01
3E
00
3E
3D
01
01
00
04
00
00
00
3B
01
08
3F
3A
00
3F
01
03
01
3C
3E
02
00
3E
3F
3E
00
3F
01
3A
3F
08
0A
3C
3E
00
04
04
06
06
01
03
02
3A
01
07
00
3C
3C
01
04
00
3E
00
3C
00
3D
3D
3D
3F
03
01
03
3B
3C
03
04
04
3C
02
3B
3F
00
02
3F
3C
3B
3E
04
02
02
3C
3C
04
03
3E
00
03
04
3C
3E
02
04
00
00
00
04
3C
02
3D
00
3B
03
3E
00
3D
00
3E
3E
3E
03
00
3F
04
01
3F
00
3E
3E
3D
00
38
3A
06
3E
3F
00
00
07
3E
3D
39
05
01
07
00
3B
00
02
07
02
02
3C
00
3E
3B
00
00
04
3C
3D
3F
3D
01
3A
04
02
3E
3F
3C
03
3E
3F
00
02
3F
02
02
00
03
3C
3E
00
00
01
03
3D
02
01
04
02
3F
00
3D
01
04
01
04
02
01
3F
3C
00
04
04
3F
04
04
3C
3B
3E
00
02
02
03
3E
03
01
3D
3D
01
04
3D
00
3C
03
01
3F
02
02
03
00
00
02
01
3C
3E
01
3B
00
3B
02
3C
01
3C
06
07
01
01
00
00
09
0E
3F
3E
00
3E
09
09
00
01
01
3A
02
03
07
01
03
3F
3C
3D
00
02
06
38
3A
00
3C
03
05
3D
00
3E
04
3F
00
06
07
02
00
3B
3F
02
06
00
3C
3C
3E
3B
04
01
3C
01
3B
04
00
04
03
03
3D
3B
3F
3F
02
3E
3B
3F
08
02
03
00
3E
03
07
04
00
3A
3A
3E
01
07
00
3B
3E
3E
05
00
05
00
02
05
00
3F
02
3A
3D
00
38
3C
3E
3E
3E
00
3D
06
3B
04
37
03
0A
0F
04
3E
3A
3D
0B
0C
03
3F
00
00
06
01
3E
01
3C
3E
00
3E
08
03
04
03
01
00
00
3C
00
3F
3F
04
02
03
03
3D
01
00
01
03
3F
04
00
3F
03
04
3F
03
3F
00
3D
3E
00
3F
00
01
3E
02
05
04
04
3F
00
3F
3E
3F
03
3C
3E
02
02
3F
3F
00
03
03
3E
00
3B
3D
00
3F
3E
04
02
00
3F
00
04
00
00
01
03
03
00
02
3F
3D
3B
01
3C
01
02
04
3E
3E
35
00
07
0A
01
3A
02
3D
03
08
00
04
3A
02
04
03
08
05
38
01
3F
01
02
06
03
01
3E
39
39
3C
3D
03
00
3F
06
3D
3A
03
0B
06
00
38
3F
00
04
0A
02
3B
05
3E
08
03
00
03
3A
04
02
02
00
02
3E
00
3D
3C
3E
04
01
3C
3E
3C
00
00
3D
3C
3F
00
03
01
3D
3C
01
00
03
3D
00
3D
3E
3D
3F
00
04
04
04
01
00
05
3D
3C
3E
03
05
3E
3D
3C
02
3E
03
3F
04
03
03
02
3C
00
3D
3F
03
3E
03
00
3E
3E
3B
01
00
04
01
01
00
02
00
02
00
02
02
03
38
00
05
02
05
3D
00
00
05
00
01
00
01
3C
00
06
3A
01
3A
00
38
3A
3E
02
02
05
3F
04
3E
3F
3B
01
01
3B
04
01
05
3E
00
3F
04
3E
03
3D
04
3C
3E
3E
00
00
01
04
03
3E
05
00
3E
01
00
05
00
03
01
3D
01
3D
3F
3F
3C
02
03
3B
02
3C
3B
01
00
3D
04
00
3D
02
00
00
3D
00
03
3E
02
3B
3E
3F
3C
01
3C
03
01
00
3E
3F
01
05
3E
3D
00
3F
3F
3D
06
07
01
02
01
3E
00
39
3E
3D
3C
3E
00
00
39
3A
3F
03
01
06
3F
01
3B
01
00
00
3C
3A
3E
00
00
03
00
00
3C
01
3E
3C
3E
3C
3C
03
04
3D
01
3E
04
03
02
3C
3E
3F
3C
3D
01
3C
01
00
00
3F
3E
3C
3D
04
00
05
00
00
03
3B
3D
03
3F
04
00
03
00
00
3C
3F
00
02
01
3F
00
04
03
01
3D
3F
03
04
3E
02
3F
03
00
3C
3B
00
01
3D
04
02
02
05
3B
3F
3D
05
00
3D
05
00
03
00
04
06
01
00
00
3C
3C
00
3E
01
3B
09
00
3F
02
3A
3D
08
04
00
3F
06
07
05
3F
00
3F
3B
33
02
00
00
04
04
3B
05
08
3D
02
02
3C
3C
3E
3E
04
3C
3F
00
3F
3E
3E
00
01
01
04
03
3D
00
3F
05
01
3E
00
05
3B
06
07
00
04
01
00
00
07
04
3C
3B
39
02
3B
02
3E
3D
02
02
3E
3E
3C
3A
00
03
3C
01
00
00
07
01
3D
03
3C
05
00
02
3E
04
3E
00
3F
3D
04
00
3A
04
00
00
3B
00
3E
3C
3B
06
3E
3A
3C
3A
3C
0B
03
00
3E
00
05
3F
3B
03
00
03
04
02
3F
00
00
00
00
3C
3E
03
00
3E
03
3F
3E
03
3C
3E
04
00
3E
04
00
3B
3D
3F
00
3C
3E
01
3C
3C
01
01
3B
3C
04
05
3E
05
03
04
3E
3F
03
01
3C
03
05
3D
3C
3B
3D
3E
3D
3C
03
05
04
03
02
3E
3C
3D
02
01
00
3D
3D
3F
02
3E
05
3D
00
03
03
3D
02
38
3A
06
3F
00
02
3A
3B
3E
00
3F
3C
3A
00
04
3E
00
03
3C
05
04
3D
05
05
08
04
02
03
3C
34
08
02
02
00
05
00
09
05
00
04
03
37
02
3E
03
3A
00
3D
3F
00
3D
3D
3C
04
0A
01
00
01
00
06
05
3E
00
02
04
3C
3E
3E
05
05
3E
3F
00
00
3F
3D
3E
00
00
00
3C
04
3D
3F
04
00
3C
03
3E
05
3F
3D
3D
00
00
04
00
3D
00
3C
00
01
3B
3D
3E
3F
3F
02
3C
02
3D
04
3D
3C
03
04
3F
04
00
01
00
3F
3F
3C
03
02
04
3B
05
03
01
3E
03
07
03
00
00
05
3F
04
01
3A
3A
00
3E
3E
02
00
3A
3F
02
3A
01
05
3E
3B
00
03
04
3E
01
02
04
06
01
03
02
02
01
04
3E
3D
03
00
3E
03
3C
3E
3F
00
01
02
3F
00
3E
3D
01
03
04
3C
02
3F
00
00
04
04
3C
01
03
01
00
3E
3D
3B
00
3E
01
3E
04
3D
04
3E
00
3F
02
04
04
3D
03
03
3C
02
01
02
04
00
3F
3E
00
00
3D
00
03
00
03
3E
04
01
3F
02
02
3E
3F
00
3B
01
3B
3B
00
01
03
00
3D
3C
02
04
04
00
03
00
3F
3C
3E
3D
3C
04
01
04
05
3F
3F
03
3B
03
01
3D
06
00
01
3F
02
04
03
00
3C
05
01
04
01
00
02
02
00
00
00
03
02
00
04
05
04
00
00
3E
03
3D
3C
01
3C
01
3E
00
3E
04
3D
00
00
3B
04
01
3C
3B
02
04
3F
3F
3C
03
3E
3E
02
04
02
01
04
00
00
00
3D
00
3E
03
3D
3C
3F
03
3C
3F
00
00
00
04
3E
02
3A
37
3F
3C
39
3B
34
3D
3C
3F
3D
00
37
3F
00
3D
00
03
00
05
00
00
01
08
02
05
3F
05
04
00
05
02
3B
01
3F
07
00
3E
04
3C
3E
01
3A
02
00
3D
00
00
04
04
3F
04
02
3F
00
00
3E
00
04
00
3F
03
3B
05
05
02
01
00
01
3B
3C
3D
33
3B
00
03
02
37
3D
04
01
01
01
3C
3C
05
38
3D
02
00
01
05
3A
01
00
00
00
02
3F
03
3F
00
03
02
00
3F
02
08
03
00
02
3F
3F
01
2F
3A
00
3F
3A
3C
39
02
04
3D
3C
01
01
02
02
00
05
09
05
01
04
00
3E
08
0C
02
04
02
02
03
3C
00
3E
01
3C
00
02
3F
3E
3D
01
3C
3F
00
01
3C
01
3E
00
3D
3C
00
00
04
05
03
02
03
02
3C
03
00
3F
3F
04
03
00
3F
3E
03
3D
3D
3D
01
04
01
01
3C
3D
3D
3D
3E
3D
3F
3D
01
00
00
02
3C
3E
00
3C
02
3C
03
05
00
3E
04
3C
00
01
00
00
01
00
3A
3C
37
00
00
03
3F
02
01
02
3B
05
01
3C
03
06
3F
08
06
02
07
02
3D
3E
02
00
05
39
00
3E
00
3B
3D
02
3E
3A
00
36
3D
03
3D
00
3B
3E
3C
00
3F
3E
01
01
02
3C
06
00
3E
3D
04
00
02
3E
3E
07
03
01
3E
3B
03
00
05
3C
3C
00
03
03
05
03
02
3D
05
3E
03
02
3D
00
00
04
04
01
3D
01
04
3E
04
01
02
01
03
3C
02
3C
00
04
3D
3D
3E
00
00
3D
01
00
3E
00
01
00
3E
04
00
3E
04
01
03
05
00
04
00
04
01
03
02
3E
04
00
02
3D
09
09
09
00
03
3B
3B
3E
00
3D
3C
3B
3F
3E
3A
00
3B
3E
3A
06
39
37
39
05
3D
3C
3B
00
02
07
3D
3A
05
09
0E
01
00
02
00
00
02
3F
01
00
01
3F
03
3C
03
3C
3D
3D
00
00
3B
02
01
05
3D
3C
01
04
03
02
00
02
3E
3B
3C
3D
01
04
03
3D
01
04
00
00
3E
00
04
3F
00
02
3E
3E
00
03
00
00
3C
03
00
3E
3C
3E
3D
01
03
3F
03
3F
3E
3C
3D
04
03
05
00
01
3D
05
3D
3D
3C
03
3C
3C
3D
09
02
03
3C
3D
39
09
03
01
3C
00
3F
3F
3F
00
0A
0A
05
03
00
3E
3D
3E
05
0C
3C
03
01
3E
3B
00
3F
00
3F
04
02
04
02
01
05
00
03
02
3B
03
00
3D
03
3C
02
3C
3F
3B
03
01
04
01
3E
00
03
3C
3D
3F
3D
00
05
03
3C
3E
04
00
3E
01
00
01
00
03
03
01
01
3F
3C
00
3D
3C
3C
3F
3D
01
02
03
3C
04
01
04
02
01
3E
06
00
00
0A
04
36
3C
3C
00
3E
3B
34
00
3B
3B
00
05
3C
3D
34
01
04
0C
3A
3E
07
04
11
0B
00
39
3D
07
02
08
06
3F
0C
38
02
00
3E
00
3C
3B
3C
03
3F
3D
3D
02
00
09
00
37
01
01
00
04
3F
35
02
04
05
06
02
3C
04
02
3F
00
3F
3B
3B
38
02
39
3E
00
3B
00
3A
0C
3E
00
3C
00
3F
0C
05
3E
00
06
00
06
3D
38
08
04
07
05
3A
3F
3C
06
01
0E
3E
00
04
3C
08
02
39
01
3A
3C
02
34
33
3F
35
37
00
03
36
3E
34
3C
02
0C
00
3F
00
03
09
0D
01
3C
38
09
05
0F
3C
04
3D
3C
02
04
00
02
04
3C
02
01
3D
03
04
04
3D
04
04
02
00
04
3D
3D
02
03
00
04
02
02
04
05
03
04
00
04
02
3E
02
00
3F
04
01
04
01
01
03
3F
03
3E
00
00
03
02
05
3E
00
00
04
05
01
3C
3D
00
3C
3F
3D
02
00
3C
03
3C
35
06
05
3C
03
00
39
08
07
3F
01
33
39
02
3C
3B
3E
3D
00
01
00
00
05
3E
00
3E
00
06
04
01
05
3A
35
3F
05
00
02
02
0C
36
01
3C
3A
00
3E
3E
3F
00
3B
3C
00
02
00
0B
39
3E
3E
3D
3E
0C
3C
33
04
06
0A
0C
3D
39
00
0A
00
0B
3D
3E
00
03
00
03
00
04
03
03
02
3D
05
3B
3D
3D
3F
02
01
3C
05
05
02
3B
02
01
00
3C
04
3F
3C
04
02
01
03
01
3F
3F
04
00
3C
3D
3C
00
04
03
01
01
3D
04
02
3E
3E
3C
3E
03
00
3F
02
3E
01
03
02
3F
00
02
03
3F
00
00
00
3C
08
09
04
00
37
00
3D
00
3D
3F
0B
07
05
3B
03
06
01
3D
3E
08
06
02
3A
00
37
02
3F
01
06
00
3B
39
08
02
05
04
3E
3D
3E
04
02
03
00
3E
3E
3D
3D
3C
00
02
04
00
00
00
02
00
3F
3F
3B
3C
3E
00
3D
02
3E
05
3C
02
3E
3F
3C
3C
3B
00
04
02
03
01
3E
3E
3F
3C
02
3F
3D
01
00
02
3D
05
3E
02
04
00
3C
3B
05
3C
3F
03
3C
04
00
01
00
00
02
3C
02
3F
01
07
08
09
05
00
02
04
3D
01
3F
06
02
02
3F
07
02
01
03
00
3F
08
06
00
00
07
0A
00
3B
02
3D
03
04
05
03
04
05
3C
00
04
04
3F
03
03
00
03
03
00
3E
3E
3C
3D
01
01
3F
00
03
00
3D
04
03
00
02
3C
03
01
00
3F
04
01
3E
02
01
3F
04
05
00
3F
3E
3E
02
03
3E
03
00
00
3F
3C
3C
04
00
00
3E
00
3F
00
3C
00
3C
3D
00
00
3F
03
00
01
01
01
3D
3D
02
08
02
00
00
05
02
01
3E
3C
05
0F
00
09
32
00
00
06
05
09
3B
38
3F
04
11
07
3D
3D
00
03
0B
08
04
39
3F
36
3C
0E
05
05
3F
0A
03
03
05
38
0B
07
3F
02
3D
05
02
02
00
04
01
38
03
02
00
0C
01
39
3A
05
01
03
02
00
3D
00
3B
09
04
3F
05
0A
36
3F
39
00
02
3F
3F
00
3C
3E
04
07
3D
0A
00
38
08
00
06
0B
39
3A
3F
03
02
08
3F
04
3E
3B
03
01
39
00
06
09
01
3F
34
3E
07
0A
05
3E
37
02
3F
07
06
01
37
3C
3D
00
0C
08
3F
38
00
05
0F
02
3F
02
03
3F
02
00
00
03
03
3D
3D
01
03
3F
04
00
3E
00
3C
01
3C
04
3C
03
3C
00
3E
02
03
3C
3C
00
00
00
01
3F
04
00
3E
01
3C
3E
01
3E
3B
02
01
01
01
3B
3E
3E
05
3E
3D
3F
00
02
03
03
00
04
02
02
3C
00
3F
3B
3E
04
01
04
00
00
08
3F
0A
3D
3C
0D
04
05
3F
3B
30
3B
04
04
08
3D
38
03
00
03
07
04
00
03
02
01
0C
02
3F
3F
00
3B
07
07
00
01
00
3A
36
00
03
00
05
01
02
01
3B
01
0A
07
3A
05
33
03
07
08
00
07
3B
36
08
08
07
0B
38
3F
3D
3F
0B
0D
3E
00
04
04
00
03
03
00
3C
00
3F
01
3D
3D
3C
3D
04
3B
00
3D
3E
3F
02
03
3F
00
00
04
02
3F
03
3C
02
04
3E
01
02
3C
01
04
00
3F
3E
3D
01
3B
3C
3F
3B
04
3F
3E
01
02
04
3E
00
3C
3C
3E
00
3E
3F
01
01
03
02
02
3E
02
3C
01
3D
01
3C
00
03
3E
03
00
05
05
3D
3F
3F
3E
01
3C
3D
00
3C
3B
02
3C
03
3D
00
03
3B
3B
00
3E
02
01
00
02
04
00
03
3D
04
00
02
3C
3D
3D
02
00
3C
05
01
04
00
00
03
3D
05
3D
00
3D
3D
04
3F
3F
04
05
3C
00
01
05
3E
3F
3D
01
01
00
00
3D
3E
3E
01
02
02
3C
00
3F
05
03
3D
3E
3C
3F
3C
02
3E
3E
00
3F
04
04
3C
02
00
02
3F
00
00
01
02
02
00
3C
3D
3D
3B
05
3E
3D
3E
02
3D
3C
3D
01
00
3C
3D
3C
01
02
00
3F
3E
02
3F
00
3F
00
01
04
04
3F
00
3D
3D
04
00
3E
02
02
01
02
00
3D
3C
05
03
3C
04
3C
03
03
03
02
3D
3E
01
02
04
00
02
3C
3F
03
00
04
3C
3D
01
00
3C
02
00
01
01
3D
3D
3C
03
3E
04
3F
01
05
3E
3B
00
3D
02
02
03
00
3D
3C
3D
04
3F
00
3F
3E
04
3F
3E
04
03
02
03
3D
01
3F
00
02
3F
05
00
03
00
3B
3D
3C
00
3D
3D
01
3C
3E
3D
02
05
02
3E
04
05
3F
04
01
3D
3F
3C
01
02
3B
3E
00
04
3E
00
00
3E
3E
3F
3F
3F
00
00
3E
03
03
00
3F
3B
3D
00
00
01
3E
3F
00
05
04
3D
00
00
00
02
3E
3F
3B
3F
3B
01
3C
3E
3D
04
3F
04
3E
04
3F
3D
04
3D
3D
03
00
00
05
3C
3F
02
00
00
3F
00
04
00
02
04
04
02
03
3F
00
3E
3B
04
3B
3D
3F
3C
3C
3E
00
3C
3D
3D
3D
01
00
01
04
3E
3F
01
04
01
00
01
3B
3D
3E
3C
3D
3D
01
01
00
3F
00
03
3D
03
02
3F
03
00
3E
04
01
04
3F
3C
04
00
02
3F
02
3C
00
04
3F
04
01
02
05
3F
3F
03
3E
3D
03
3C
3E
01
00
3D
3F
03
3D
03
00
3F
3B
3F
04
3E
3C
00
03
3F
05
05
04
3D
3D
3C
3F
3D
02
00
04
3C
3C
00
01
04
00
04
3F
00
3E
3E
3E
3C
00
3F
3D
3D
3B
3F
3C
04
3F
01
3D
00
3C
02
02
3B
02
00
3D
3E
05
3E
04
01
02
3E
01
01
04
3B
3F
00
3D
00
03
03
3E
02
3D
03
3C
3C
01
00
01
04
05
03
3C
00
00
3B
04
03
3E
00
3D
02
00
3F
02
00
00
03
3E
3C
02
3D
02
3F
03
00
3E
3D
03
3D
01
04
3C
3C
00
3E
3D
03
3C
3E
3C
01
00
02
02
00
3F
04
00
01
3C
3B
3E
3E
01
3E
00
04
3F
01
00
03
02
00
02
00
00
3E
3C
04
3D
3B
3E
01
00
02
03
03
3C
02
02
3E
00
00
00
02
04
05
01
03
02
3E
03
00
02
3D
04
02
00
3B
01
3D
04
3C
3E
3E
3E
06
00
05
00
3D
00
00
00
3E
3E
01
3B
03
03
01
04
3D
3D
04
00
3C
3E
03
3D
01
3C
03
01
03
00
02
04
00
3C
3D
03
3D
3C
3C
3E
00
3C
3E
05
00
3F
02
3C
3C
00
01
3B
04
3E
00
03
02
01
3C
3C
01
00
03
02
3C
00
3C
3E
01
00
3D
01
03
3B
05
02
00
3B
3E
01
3E
3F
3E
04
04
3C
3F
04
00
3E
00
04
00
3B
3F
02
00
03
03
00
02
00
3F
3F
3F
3F
3C
00
00
04
00
00
01
3E
3E
3C
39
00
3D
00
01
03
00
00
03
01
02
3D
3C
03
02
00
02
3D
00
3C
03
3B
3F
04
3F
3D
04
3E
01
02
01
3D
04
02
3D
3D
3F
01
02
00
03
05
01
02
03
01
00
04
03
03
3E
3E
3E
3C
00
03
00
3F
00
3C
3D
00
3D
00
04
01
04
3D
00
3B
00
3D
05
3C
01
3D
01
00
00
3E
03
00
00
3F
3D
3E
04
05
3E
00
01
01
00
02
01
06
3F
39
00
3D
3F
03
04
03
3E
3E
05
03
01
3D
3A
3B
00
00
3B
03
3A
3D
01
00
01
3F
3A
3E
3F
3B
02
04
3E
02
00
05
3D
3E
05
03
08
06
00
02
00
00
3F
05
3E
00
3C
00
3F
00
00
01
00
00
3E
3D
01
3D
3B
3E
3A
00
01
04
3E
00
04
03
07
00
00
3E
03
00
01
03
3C
3B
3E
03
3B
00
00
00
3F
00
03
02
00
3C
02
3E
02
00
3D
03
00
01
00
3D
01
06
03
0A
01
01
01
00
00
00
3D
3F
3F
02
02
02
39
02
02
3A
01
3C
3B
3E
3A
3C
00
02
05
01
38
3D
03
3A
00
02
3D
04
3D
3D
3C
00
01
01
3E
04
3E
04
01
3F
03
01
3C
02
05
3D
3F
3C
03
02
03
01
00
00
3D
03
3E
00
00
01
3C
00
02
3D
3E
3E
3C
05
04
03
3C
00
00
02
01
3D
00
3C
02
03
3F
3C
00
02
3D
02
03
3C
02
02
3E
04
3E
04
3C
04
00
3A
03
3F
06
06
04
04
3C
3B
3C
3E
3C
00
00
3F
00
03
3D
3F
00
02
3F
01
3F
03
00
00
01
3B
03
03
01
02
3E
05
01
3B
05
06
3F
09
01
03
3D
3C
05
05
3E
3D
02
03
3E
00
00
00
3C
02
3E
04
3B
3B
00
3C
05
3F
00
02
3B
3F
02
03
00
04
03
03
00
05
3F
00
3F
00
03
04
00
03
03
02
3F
03
04
04
01
03
3D
01
3C
02
00
3F
03
00
02
02
3E
3C
00
3D
3E
03
01
00
3F
3D
3F
00
3E
3C
3C
3C
3E
01
3E
03
03
3D
01
3E
04
04
03
3F
00
3D
00
05
00
3E
3E
3D
03
3E
04
03
08
05
0B
03
38
07
3E
00
00
0A
06
09
01
38
00
02
3D
01
3F
02
39
36
3F
3F
39
3D
3A
38
00
04
3F
3F
05
02
04
38
02
01
03
3C
00
3E
00
00
00
00
00
01
3E
00
02
03
00
00
00
02
00
3D
3C
02
3E
01
3C
02
02
3F
3C
00
03
04
00
00
04
00
05
04
3D
3D
3F
00
04
3C
02
04
00
3C
3C
00
01
01
03
03
3C
02
03
3E
3D
3C
3B
02
01
3E
3C
3C
04
01
00
00
03
00
04
07
03
03
05
00
04
3F
00
3F
00
3B
39
37
02
0A
3D
3C
3A
3C
00
01
3C
3D
05
05
03
3F
02
3A
3A
03
02
0E
04
3D
3F
3C
02
03
3C
3E
02
01
3D
00
3D
02
00
01
00
00
3D
04
00
00
00
3B
01
04
03
00
01
00
00
02
01
01
3D
00
03
03
3D
01
3D
01
02
3D
04
03
03
01
02
00
3E
01
3E
01
3E
3E
3D
3F
03
01
00
03
03
3E
3D
04
3C
3D
3C
3D
3D
00
01
09
03
01
02
06
03
3C
01
00
04
02
04
00
39
3F
05
0C
3D
3F
36
3A
01
06
3D
00
01
04
05
03
3C
00
3E
00
03
06
3E
05
04
3F
05
0F
3C
02
00
07
3E
01
04
00
3D
01
00
05
3C
3D
3E
3F
06
06
39
36
39
3E
08
07
02
37
08
04
04
04
03
05
03
01
03
08
07
3D
3E
00
38
0B
00
3C
3A
3A
39
09
3C
36
39
3B
07
05
01
36
00
07
03
00
38
39
3C
00
00
0C
04
09
0C
02
10
0E
3E
3D
05
00
04
3E
00
07
3E
3D
00
02
03
3F
39
36
3F
08
3B
3C
02
02
0A
07
01
3E
3C
0A
08
02
04
00
3C
3E
05
3C
01
3F
3C
02
03
05
3C
02
03
00
04
04
3C
02
01
00
03
00
3F
04
03
02
3F
3C
00
00
3F
3E
03
00
3B
3D
3B
02
00
3E
3C
02
3C
3C
00
03
3C
3D
01
3B
03
02
02
04
04
3E
03
02
02
3F
3E
3D
01
00
00
04
3C
01
00
00
3C
03
00
04
08
03
3D
07
00
3D
01
3D
3E
06
38
38
01
06
00
3D
3D
3E
3E
04
3E
3B
02
07
3F
04
07
3D
3D
3B
00
02
06
09
0A
03
3D
0B
00
00
05
3E
01
04
06
37
3A
3B
06
0D
00
00
3C
3B
02
09
3C
36
01
3D
09
08
00
3D
04
01
3E
05
3D
02
00
00
01
04
00
3E
3D
04
3C
02
04
02
00
00
03
3E
01
3F
02
3F
3D
3E
03
01
3D
3D
3F
00
3F
03
00
3F
00
02
3D
3B
3C
02
00
3C
04
02
3C
03
00
00
04
04
01
3E
04
04
00
3C
04
3E
3D
3B
02
02
3E
3B
03
00
04
00
04
3F
3E
03
01
04
00
3C
3D
3F
00
3D
04
3E
00
02
00
00
02
3E
3B
01
3C
3C
3D
04
3D
04
03
00
3D
3C
3C
03
3D
00
00
00
01
3C
04
3D
3D
3C
03
3E
3F
02
00
04
01
00
3D
3B
01
00
04
3C
01
01
02
02
00
3B
3F
05
3C
3D
04
00
3F
00
02
00
04
00
3E
3E
00
3F
03
02
04
04
04
3B
3F
00
03
00
02
00
3B
00
00
3D
05
3C
3C
3D
3C
3F
3E
04
02
02
04
3C
3D
04
03
00
02
01
00
3F
01
3C
05
3C
3C
03
3D
3E
3F
3C
00
00
3F
00
3D
00
00
3B
3D
04
3B
3F
3D
05
03
02
3E
3C
00
03
00
3E
3C
04
01
03
3C
00
04
3B
3B
3C
3E
00
02
3F
04
04
03
3C
02
03
03
3C
3F
3E
3E
01
00
02
3D
3F
02
3F
00
3D
04
00
01
00
00
05
3E
04
3E
00
3D
01
3B
01
3E
04
05
03
3B
02
3C
00
3D
03
00
01
01
03
03
00
3D
01
3E
00
00
04
03
00
3E
04
02
3C
00
3C
3F
3C
3C
3D
3F
01
3B
3F
01
01
00
3C
00
01
3C
3D
00
00
03
01
02
3C
3F
00
3F
00
02
3D
3F
3E
00
00
00
02
3C
03
01
03
3B
03
02
03
02
3E
3F
00
01
3B
3F
3C
3D
3E
3F
01
03
3F
00
01
01
05
00
00
3C
01
01
01
00
00
01
00
3F
3C
02
3E
01
02
02
00
00
03
3D
3D
03
05
04
03
3E
03
3E
02
04
3F
3C
3D
3F
00
04
01
3E
00
3F
01
02
3D
01
02
00
3D
03
3B
02
00
3F
3E
00
3D
00
03
00
3D
03
03
04
3F
3B
3F
03
01
04
02
3B
3B
00
3D
3D
00
3F
04
3E
02
3E
3E
04
00
05
3C
3F
3C
04
02
00
05
3D
3D
04
3F
03
02
01
3D
3F
04
02
3F
01
3F
00
00
03
05
04
3F
00
3B
00
00
3D
04
3E
3C
3E
00
3C
03
00
3D
00
3C
01
00
00
00
3E
03
3D
00
04
01
3D
05
3D
3E
03
3D
00
01
02
3D
05
03
3E
00
3F
3E
04
03
01
04
3B
00
3E
02
00
3C
00
02
3F
00
3D
04
3B
3D
3C
3E
3E
01
04
00
01
04
3B
00
02
00
3E
3F
3E
05
3E
3F
00
3C
3D
3D
01
3D
3C
3D
3F
3F
3D
01
00
3D
02
01
00
05
00
03
3E
3E
01
3E
02
3C
3F
05
00
02
04
3F
3F
00
3E
00
02
04
03
05
3E
3D
3B
03
02
3F
04
3D
00
00
02
04
3D
05
05
01
3D
01
01
3F
05
3C
3F
3E
3F
03
00
00
3C
3D
03
3F
01
3C
3E
02
03
00
3C
3D
3F
02
3C
3D
3B
3D
04
3F
3F
00
3F
3E
00
3E
03
00
02
00
04
02
3E
3F
01
3F
36
03
3F
00
09
01
3E
02
3E
38
02
03
3F
02
3C
3C
03
03
04
39
04
01
01
3E
02
03
3E
3C
3C
39
04
00
38
3A
35
03
00
3D
3E
3F
04
00
3C
3F
04
3C
3F
04
3E
04
3D
04
03
00
3C
3F
01
3F
3C
3C
02
03
3E
00
3D
03
3D
3D
3E
00
00
3B
3F
3E
3F
00
00
02
3D
00
04
00
3D
03
3C
02
04
00
02
04
02
3F
01
04
01
3C
04
05
03
02
02
3D
3F
02
01
02
00
3B
01
3F
3D
01
00
03
3F
03
3E
01
06
05
02
04
08
02
3F
3E
04
00
00
00
3F
03
00
02
3E
3B
38
3F
3F
07
04
02
01
37
3D
00
01
3E
3D
03
3F
03
05
05
3C
00
3C
00
00
3E
01
3F
03
00
03
03
01
00
3E
3D
03
03
00
04
02
03
3F
00
3C
3C
02
3D
04
3C
3C
3C
03
3D
3C
02
3F
3B
03
03
04
03
3C
3E
3E
3B
03
3E
01
3E
04
03
03
02
04
01
00
3F
04
3C
04
00
01
01
3D
00
3F
3F
06
02
00
39
00
03
0A
3C
3D
00
01
3C
02
03
09
3D
00
39
04
0B
01
3E
34
39
05
06
07
04
02
36
3B
04
39
01
04
35
07
3C
38
00
06
3F
02
3E
39
3B
02
38
06
01
02
3E
00
00
04
0A
01
38
00
00
02
09
3D
39
3B
3D
3E
00
00
3D
07
3E
04
01
3E
3F
04
3D
3F
05
02
00
01
00
01
03
3E
39
3F
39
01
09
3F
3A
3B
3F
06
08
06
03
07
33
01
07
01
3D
3B
37
07
0B
3D
38
00
0A
09
3C
3F
3E
3F
00
02
04
0C
02
3E
35
04
04
3B
02
36
3D
3E
03
07
00
39
3E
02
00
05
3B
3C
01
04
03
3E
03
02
00
03
01
00
3F
3E
3D
00
3D
02
01
3B
3D
03
3E
00
3D
3F
02
01
02
00
3C
00
03
01
01
01
04
02
00
3E
04
3E
3D
01
3D
3C
3C
01
3D
04
00
3E
3D
3F
04
3D
3C
01
01
3C
3E
04
3E
02
3E
3C
3B
04
01
05
02
00
02
3A
05
08
3F
00
37
3E
08
0D
00
05
00
3E
01
02
3E
06
00
3B
3F
02
3D
3F
00
39
3D
3C
00
05
07
3B
3B
3D
05
37
07
0B
3B
01
01
3F
3C
07
3F
04
00
3D
3C
06
3F
02
09
05
02
04
3C
08
0B
02
36
3C
3A
04
07
3D
3A
3A
32
01
01
04
3D
01
04
3C
3C
01
3E
01
3E
00
3C
04
3D
3C
3E
00
05
01
3F
3D
02
00
3F
3F
00
03
3D
3F
02
3D
00
04
03
3D
3E
01
03
3F
3C
00
03
3E
3C
00
04
3D
02
03
00
3E
3E
3E
01
3F
00
3F
3D
05
01
02
03
01
3F
3F
3E
3C
3D
3E
05
34
3D
37
01
14
3B
3F
00
03
3E
39
02
3F
00
3D
00
08
00
04
39
02
3B
0B
02
0B
04
06
3D
3E
3A
07
03
3D
01
36
3F
3E
03
00
3E
03
02
3F
01
3C
3D
3F
02
3F
03
3C
03
3B
3F
04
3F
3E
02
3E
01
3F
02
3D
3E
3D
00
05
03
3C
02
04
05
00
01
03
05
00
00
04
3F
04
04
01
3C
04
02
01
01
02
03
3D
3C
02
3E
3C
04
3C
3F
3D
04
00
3E
04
04
02
04
3C
3C
03
00
05
03
39
3B
02
01
3B
01
08
00
09
3C
00
3D
02
02
04
04
05
01
01
00
3E
3F
3B
3A
3D
04
0A
08
04
03
00
3B
3D
05
02
00
3E
00
00
3D
3D
3E
01
3D
02
3E
03
00
00
00
00
02
00
3F
00
3D
02
00
02
00
00
3E
3E
00
02
3E
04
3F
3F
04
00
02
00
03
00
3E
3D
03
01
00
3F
3E
3D
01
3C
00
03
02
02
01
3E
02
04
02
03
3C
3C
3F
01
03
3F
3E
03
00
02
00
3D
03
05
3C
04
08
39
3B
3F
01
06
02
3B
37
3F
00
0A
05
05
01
3C
39
03
06
3B
3A
35
33
04
09
06
01
37
35
3C
00
3E
09
0C
35
00
3B
00
3A
04
01
01
03
38
3C
0A
00
08
3D
02
01
04
3B
01
09
3F
3D
3C
3E
04
08
3C
3B
00
3A
01
03
01
02
02
3E
3A
08
01
3A
0C
00
0A
00
3E
03
02
3D
06
01
06
3D
03
3A
01
05
3A
39
3C
00
08
08
06
3E
3D
38
02
07
3C
00
36
37
01
0D
3C
37
3F
06
0D
03
3F
37
3B
3D
09
07
02
01
3F
3C
0A
08
01
00
31
36
01
0A
07
02
3C
36
00
05
01
03
02
3F
01
3D
04
00
04
3D
3C
00
00
3E
02
3D
04
3B
01
3D
01
05
00
01
3E
3E
3C
03
00
01
3C
3C
3C
3D
00
00
02
3E
05
3E
3B
04
3D
00
00
3F
00
3B
04
3D
03
3D
3F
00
3E
3E
3C
3D
00
3F
00
01
00
3B
3F
01
01
02
00
03
01
3F
3D
01
39
3F
03
38
00
37
3B
05
12
03
3B
3A
3D
01
05
01
3D
3F
3B
00
03
3E
05
3C
3C
3D
00
00
01
07
3F
00
3F
06
00
04
09
3C
3B
06
3A
3F
07
3C
02
08
39
3F
08
3D
07
05
02
3A
03
3C
0A
0C
00
36
3E
3D
01
07
00
3E
3E
33
3C
01
3D
01
02
3E
03
00
3E
04
03
03
3D
3C
3C
03
03
3D
02
01
3E
00
3D
3F
02
00
3D
01
3F
3D
3C
00
3D
3D
01
00
3F
01
03
3F
3F
01
02
02
03
00
02
3E
00
03
3B
3D
3C
06
00
04
3D
3F
04
3D
3B
3D
00
3C
02
05
00
00
3C
00
01
01
03
03
0C
06
35
06
3B
3D
02
0C
0C
06
00
3A
3F
03
03
03
3C
01
35
3E
3D
01
3F
38
38
3D
01
09
3B
3A
08
01
0A
3A
3F
00
04
02
3D
00
01
3F
01
3C
3E
03
04
01
3D
01
3D
3C
3D
00
01
00
05
00
04
3D
3E
00
03
01
05
3E
04
01
01
00
3D
02
01
03
03
3C
04
3F
3D
04
00
00
00
3E
03
02
04
3F
3D
01
3F
00
3C
04
3E
00
00
3E
03
3C
00
3D
03
3D
04
3C
3E
01
3E
0C
0D
05
09
3E
02
00
3F
03
00
00
36
3A
02
0C
00
3D
01
02
00
01
3C
3F
06
03
06
01
39
3A
3C
02
3D
0C
04
3C
3F
3F
03
3F
04
3E
01
00
04
3E
3E
04
3C
01
02
00
04
3C
00
3E
02
05
3B
3E
3D
3E
01
00
3C
3D
3D
00
3C
3C
3C
04
03
3E
01
00
3F
02
3D
00
04
3C
04
03
02
00
3F
3E
3D
3C
00
01
3C
05
3D
00
3F
05
3E
01
02
03
3D
3E
00
3B
02
02
0D
07
04
12
05
3D
02
06
04
07
02
3E
35
37
3E
12
3E
3A
35
37
03
13
37
3A
01
3E
0A
07
02
39
04
0A
01
09
00
3E
04
00
05
0A
3E
00
08
07
01
08
01
3B
00
3A
3A
0D
02
3A
3B
3E
01
09
3B
36
00
03
05
09
3E
3C
00
04
00
04
06
02
3C
03
09
0C
0A
3C
02
00
3C
0C
05
39
36
3C
3D
0E
00
39
39
3F
08
08
3B
39
07
02
08
03
00
3D
04
08
3C
10
05
06
09
09
11
08
3C
3B
00
06
07
3F
00
01
3D
34
04
09
03
3F
33
35
01
09
3A
3A
3E
00
08
06
01
3D
01
04
0A
0B
3E
01
00
03
04
02
01
3C
3C
02
3D
00
04
02
00
00
00
00
04
3D
04
00
05
3E
03
3E
3C
03
01
05
02
3E
3D
04
3F
3D
3D
3D
3E
3C
05
00
01
3E
00
03
3F
04
3F
3F
3D
3B
02
3D
3E
3E
3C
3C
3D
05
00
3E
00
04
3D
02
00
3C
03
02
03
02
39
02
00
09
09
0A
3F
03
03
03
01
3E
37
01
00
3D
3B
05
02
00
3E
3A
3F
02
3D
3E
3D
0B
03
0A
03
36
3C
00
09
02
01
04
05
02
05
0A
00
03
08
02
02
0D
08
37
37
3C
06
09
39
39
36
3C
05
10
3C
36
39
3E
07
0C
3E
3E
08
00
03
07
3B
01
3F
3C
3D
03
3F
04
3F
05
3F
05
02
3C
02
02
3C
3C
00
02
04
3F
3C
02
00
00
03
00
04
04
01
03
01
3B
04
00
3F
03
03
3C
01
3D
3E
00
3F
3F
02
3F
00
04
02
02
05
3E
00
3B
3F
00
04
02
3F
3F
01
3E
3F
01
3F
03
01
3F
3F
00
08
3F
3A
3C
3C
39
3E
01
01
38
02
3E
04
01
00
02
00
37
3A
06
0A
0E
3C
00
00
3D
05
08
00
02
00
00
3E
3E
3F
08
3C
3F
01
3F
03
3C
3C
02
3E
04
3F
00
05
00
3C
3E
01
03
04
3F
00
03
3E
00
3E
00
05
04
3D
02
05
00
01
3C
02
00
04
03
3D
3E
3C
3C
3C
02
03
3D
03
3F
01
04
04
3C
02
3E
3C
00
3F
01
00
03
02
3C
3C
3D
02
04
3D
00
00
01
02
00
01
3F
00
3C
3F
00
02
03
04
06
3F
38
3A
06
07
06
00
3A
3F
04
04
07
3D
02
00
04
3B
3C
03
02
01
01
04
00
00
37
01
01
03
00
00
00
02
05
00
3C
3C
02
04
3E
02
04
04
03
3D
03
00
3D
3B
3E
04
05
03
3D
03
02
04
3D
04
00
02
3C
00
3D
3F
00
3F
02
05
01
3E
3F
3F
00
00
03
00
3C
3F
3E
02
04
04
00
3D
00
00
00
02
02
3F
3F
00
00
00
3B
3C
04
03
38
39
3B
39
39
3F
3B
05
01
00
3C
37
00
09
14
03
38
3F
03
0B
0F
04
3E
05
00
07
06
01
03
3F
06
3C
00
04
05
06
3D
3A
3E
00
3A
00
3D
38
06
00
01
3C
3F
0B
07
3C
37
3D
0C
0D
0B
3F
3C
01
3E
03
0A
02
01
3E
06
39
00
00
02
3A
03
00
3E
3D
3C
01
02
0B
07
3D
37
3F
03
09
08
00
3C
3B
02
02
0A
00
3E
02
05
03
3B
00
06
01
3F
01
01
00
37
3E
3E
3D
3B
00
00
39
3C
3D
09
3A
3F
32
3D
08
14
01
3F
35
01
07
0E
0A
3F
00
3F
3E
07
06
05
03
00
03
00
09
3D
03
3C
3E
02
04
03
3F
3C
03
3E
03
00
02
00
00
3E
3F
3F
3C
01
02
3B
3E
3C
00
3E
04
3C
3F
04
00
04
3E
04
3D
3E
3C
05
02
3F
00
00
3D
3D
02
03
00
05
00
03
02
05
02
3D
03
3E
3C
3C
05
01
02
3E
3C
01
3C
01
00
00
03
3C
02
3E
02
3E
3D
3F
01
36
37
02
03
06
06
02
31
3F
07
09
03
39
00
3F
04
04
05
03
3A
04
04
01
09
04
39
05
05
01
00
06
00
3F
3B
3E
3F
3F
3F
3E
06
00
3F
3F
3E
00
09
06
3D
3D
37
09
0E
0C
04
3E
06
00
03
3F
04
00
3B
00
39
01
09
00
02
3E
05
00
00
02
3C
3E
04
04
00
04
3C
3C
3F
3C
04
00
3E
01
00
03
03
3D
01
3F
02
3D
00
01
3C
01
3E
01
3E
3F
3C
00
05
02
3D
3D
05
00
3D
3E
03
01
00
03
04
00
3C
00
3D
05
3D
00
3D
00
3E
3D
3D
02
3B
04
02
03
05
00
00
3C
35
3E
3B
05
0A
01
02
3F
07
3F
00
3B
01
3E
03
3B
01
02
03
3B
38
3D
03
01
08
3D
3F
3B
3C
00
04
01
3A
3D
37
00
3F
01
3E
00
3F
00
04
02
3E
02
3D
04
3C
3B
05
02
00
3C
03
3E
01
00
03
3F
05
3D
3E
05
3C
3F
01
02
3F
3C
04
3C
05
00
3D
00
00
3C
04
3D
00
3E
01
3D
04
3F
04
00
00
3C
03
00
3C
02
00
3E
3D
3F
02
01
3D
3D
04
01
02
3B
02
04
02
06
06
02
3E
3E
00
01
3F
3D
04
07
06
3F
3B
3E
02
04
02
06
01
03
03
00
3F
00
04
3F
37
3F
04
3F
3F
3F
01
00
3D
3C
3C
00
00
02
3C
04
3F
3B
3D
01
3F
03
00
03
04
3E
00
00
3E
3C
3E
02
3F
3C
01
01
00
04
3C
3E
00
3D
01
3F
04
3F
3D
03
05
04
3C
3E
02
04
03
3C
3F
00
02
3D
02
3F
01
00
05
00
3F
00
3E
3C
03
3E
3E
3E
00
02
3F
00
3F
04
03
0A
03
06
03
3C
07
02
00
01
3F
05
0F
01
3E
34
03
00
12
01
3B
36
3F
3D
02
09
3E
3D
39
00
03
00
0A
00
00
00
3F
02
3F
02
00
37
00
3D
00
3B
3C
3A
3A
01
3C
3C
0A
03
0B
3F
3A
3F
05
3D
07
01
3B
38
3C
00
3F
08
04
04
3D
37
07
02
07
0A
01
3B
01
08
3D
3D
0B
00
0C
3F
38
3A
09
01
02
00
3E
38
02
3F
02
03
3C
3E
3B
00
01
03
07
00
3E
3F
06
08
05
03
03
00
0A
0D
3F
3F
05
03
0F
01
3D
35
3B
00
13
01
3D
3F
3F
06
0A
00
01
38
3E
3C
3F
02
09
00
37
00
01
02
3D
3F
3D
01
01
3E
3E
02
00
01
3F
3C
03
04
04
3D
3E
3D
04
04
3E
00
03
04
3E
3E
3C
3C
3F
3F
03
04
3F
02
00
02
3C
00
3F
04
02
02
02
3D
3C
3D
00
3E
02
04
05
03
02
00
3E
00
03
00
00
00
3C
00
00
04
01
05
00
04
3D
01
07
02
3E
06
37
05
05
3E
00
3E
3E
06
0D
08
3F
39
3B
06
03
02
3D
3C
00
00
06
3A
05
3A
37
39
3F
01
3D
05
3B
3F
00
07
01
05
0A
02
00
02
3D
00
01
3E
0A
3C
3E
37
09
00
07
3F
3F
3A
02
03
04
03
3C
03
3F
37
3F
07
00
3D
3E
37
05
3C
03
01
00
01
03
03
3C
05
01
00
3E
05
3E
00
02
3C
04
00
00
3C
01
3C
3F
00
3D
04
3C
01
01
3D
00
3B
3B
03
00
3F
3C
04
3E
04
3B
01
3F
03
00
3F
3E
3F
04
00
3B
00
00
04
3C
00
04
00
00
3C
3C
3F
3C
02
01
3C
05
00
03
3F
03
04
3D
00
33
02
3F
3F
03
06
0E
0F
06
3A
01
09
07
3F
04
01
00
3B
02
02
3C
3B
02
39
01
03
37
3B
3F
00
03
00
3D
01
3C
3E
00
01
3C
3F
3C
3C
00
00
01
03
3B
3D
3F
3C
04
05
3B
3C
3E
3F
00
3B
00
3C
04
3D
00
05
3C
00
04
00
3D
3E
3C
3E
3D
02
03
3F
04
3D
01
3C
03
3B
03
00
3C
04
00
3D
01
3D
3D
00
00
3D
03
01
3E
02
03
04
00
3F
00
00
04
3F
02
07
0E
0E
01
3C
3D
04
3F
07
3D
06
05
3E
02
05
3A
39
00
00
00
03
3D
01
3A
02
3C
3E
3C
03
39
38
3B
00
3D
00
00
04
02
02
3E
03
03
00
00
00
00
3D
02
04
02
02
04
03
01
03
03
01
3F
3D
3F
01
3C
3C
00
00
03
04
3C
00
3D
00
3C
3C
00
03
3B
3C
00
05
3F
04
05
3E
01
03
3C
02
02
00
3B
00
3D
00
00
3E
04
3D
03
03
04
01
03
3F
01
04
3C
3A
06
04
01
09
07
36
0C
0B
0C
0F
01
00
07
0A
3F
3E
3D
03
00
36
3C
3C
3D
00
00
35
3D
3B
3E
3B
32
34
39
3F
39
01
06
00
36
0B
3D
01
3C
01
0C
0C
03
3D
08
3E
02
04
35
03
01
3A
3E
00
00
00
01
01
00
3E
3D
03
3D
3B
3C
39
3E
06
3B
01
00
14
04
3E
05
02
00
03
3E
3E
04
3A
3B
01
3D
3A
00
00
00
3A
3A
00
00
3D
39
02
3A
00
37
3B
3B
3F
3F
00
01
04
04
08
05
32
04
05
08
0D
04
04
06
02
00
00
38
3D
00
3E
3B
00
3D
01
02
3B
3C
3F
3D
00
38
33
35
3F
03
01
04
04
3E
01
00
00
3C
3C
02
3E
3E
3E
3E
02
3D
02
00
02
3E
01
01
03
03
00
04
3D
3F
02
02
3D
3F
04
3C
02
05
3F
00
01
02
00
3C
00
00
03
00
04
3E
00
01
04
02
04
01
02
01
04
04
03
3C
00
3F
00
03
3D
3E
3E
00
3E
01
3C
3E
00
05
3E
0C
07
00
04
00
03
06
3E
3A
3B
3D
02
02
3C
38
38
03
01
3D
03
3E
03
00
3A
3D
00
01
3E
3E
3C
3B
3F
3A
01
04
04
3A
06
02
39
06
01
09
0D
05
37
03
05
03
06
3A
3F
05
00
00
3C
03
38
39
3C
3F
37
3C
3D
39
37
39
3C
01
03
3F
05
02
3D
3B
03
00
00
3F
02
3F
3D
03
3E
03
3D
3F
3E
00
00
01
3C
3C
04
3C
01
3C
01
00
3E
00
00
00
04
3E
02
05
3D
3D
02
3F
00
3C
03
00
00
3E
01
00
3F
01
00
01
3B
3E
3D
03
3E
03
01
03
3D
3D
00
3E
3F
04
03
00
03
03
00
0C
01
33
00
3E
02
05
09
01
09
02
38
00
3F
3F
3E
3B
04
00
3F
38
04
3D
3A
3A
3E
3B
3E
37
00
03
04
03
3D
02
00
00
00
03
3D
3C
3B
02
3E
3E
00
03
00
01
3F
02
3E
04
04
3C
3F
00
3E
00
3F
04
00
3E
3E
3C
3D
01
01
3E
00
02
00
00
3D
05
3F
00
00
02
3C
01
3C
04
3E
01
00
3E
00
05
3E
3F
03
03
01
3C
00
3B
3E
00
3E
02
00
01
01
01
3B
02
04
02
09
04
05
00
39
3E
06
3A
04
00
01
3B
3F
00
06
3D
00
01
00
04
3E
3F
38
00
09
08
3E
39
3B
3C
00
04
10
02
3E
3F
00
3D
04
3D
04
00
04
03
00
05
00
02
3F
3C
3D
3C
03
02
01
04
3D
01
00
3C
3B
05
04
00
3D
00
03
3F
00
3E
04
3D
3E
3F
00
01
04
03
00
01
04
3F
3E
04
04
00
00
04
00
05
3D
01
03
3C
3F
04
03
3D
04
04
02
3F
3D
3F
01
02
01
01
05
03
0A
3C
39
00
07
07
00
38
3D
3A
3B
06
04
3D
3E
36
3A
02
04
35
38
3B
05
06
06
3A
37
3A
03
00
0B
03
01
01
36
00
10
00
3B
04
06
3E
08
01
3E
01
3F
00
03
00
3C
3E
3E
00
0B
3C
37
01
3F
03
08
02
37
02
05
3E
3F
03
00
3A
07
02
08
0A
3F
01
04
37
05
03
3D
3F
00
01
02
3E
3A
3C
03
04
07
38
39
00
07
0B
3F
3D
3E
3D
07
3D
09
3C
04
01
00
0F
0B
00
3C
02
04
04
00
39
00
3A
3A
02
06
38
00
3A
38
05
0A
36
3E
3E
04
08
0A
01
3C
3C
03
02
08
03
05
01
3D
00
3E
00
3D
00
00
03
3E
3D
00
05
02
02
3B
00
3F
00
04
05
02
03
3F
00
3C
3D
3C
03
02
3C
04
3B
00
3C
04
3E
3D
02
3F
03
04
03
00
00
3D
3D
3D
03
00
3D
04
3F
05
05
00
3C
01
00
3E
3D
3D
00
02
00
03
3F
3F
05
3C
34
04
07
00
0C
01
3D
08
3F
01
00
36
39
3D
38
3D
02
03
37
00
3C
00
02
01
3C
00
3C
04
08
04
01
3E
3D
3D
07
00
00
07
0A
00
38
0A
05
3E
07
3E
01
05
04
3B
03
00
01
0C
34
38
38
3A
02
06
3C
36
00
02
01
05
3A
35
05
00
3D
0A
3E
01
03
00
00
02
03
00
3D
3C
05
01
04
3E
01
3E
3E
3E
05
03
3D
3D
01
3F
00
00
3C
01
00
3D
3B
02
3C
3E
03
3D
3E
3D
03
01
00
01
01
3F
00
3D
3E
00
00
01
02
03
05
00
01
3C
03
3F
3C
3C
3C
3E
02
3C
00
00
01
3E
02
3D
03
3B
3D
01
00
03
02
3C
04
3F
3F
3E
00
3B
00
03
3F
03
3E
02
00
3E
05
00
00
00
00
04
00
03
01
03
3C
3C
3F
3F
05
05
3F
3E
00
02
01
01
03
00
04
01
00
04
00
00
3F
03
3F
04
02
00
00
02
3B
3F
3F
00
3E
3E
02
00
3D
00
01
3E
04
3D
04
02
3D
3B
02
00
01
02
3D
00
3F
3C
00
01
3C
05
02
03
3C
3C
02
03
3C
05
3F
3C
3D
3F
02
3D
03
05
05
02
3E
3E
03
3F
00
05
3B
3F
3E
3F
00
3F
04
01
3D
04
3F
00
00
3C
02
3D
3C
04
02
3E
3C
04
01
3D
3C
3E
3D
00
00
3B
02
02
3C
04
3E
02
05
03
03
00
00
3C
3D
04
3C
02
3D
04
03
3F
00
3D
04
3D
01
03
3B
3B
3D
00
03
3F
3E
03
04
02
04
3C
3C
00
3C
3F
03
05
3F
3C
3E
05
00
3C
3E
3D
3F
3D
3F
04
3E
3F
02
3C
3E
00
04
00
00
3F
02
3E
00
3E
01
05
3C
00
00
3D
3C
3E
3C
02
3C
02
03
3E
03
02
3C
01
00
02
3C
03
00
01
3D
02
00
03
00
02
3D
3B
01
01
00
01
03
3D
02
01
3E
3D
3B
03
00
00
3D
3C
04
03
02
04
04
02
03
00
01
3C
3E
00
00
05
04
01
04
3E
01
3C
3C
02
01
00
3D
03
00
03
3D
03
00
3F
00
3C
3F
00
3C
02
04
02
3D
3D
3C
3D
03
02
3E
00
00
00
3B
04
3E
3C
00
01
02
3D
00
3C
3C
3D
3D
03
3B
3F
3E
03
00
3D
03
3C
3E
3A
3F
00
03
3C
3C
04
00
3C
01
04
00
3E
3D
3E
01
3C
04
3D
01
04
3E
3D
3E
3E
3D
3B
3E
3F
04
00
00
3F
00
02
00
00
00
05
3D
05
3F
03
04
00
00
03
00
01
05
3F
3F
04
04
05
3B
03
02
3D
03
3E
02
00
01
3D
3F
3E
02
3C
00
02
00
3F
01
00
3E
3F
3F
3D
00
3F
3D
3C
3D
3F
04
00
3E
3C
00
04
3C
04
04
01
02
01
3C
3E
3F
3D
00
01
00
02
3D
04
3E
04
04
3C
3B
03
03
00
00
00
3F
02
01
3B
3F
3D
02
3B
3C
3C
3F
3C
3F
3D
03
04
02
3E
01
3B
3E
3F
3B
04
02
01
01
04
3E
00
3E
3F
3B
02
3C
3D
03
3D
00
3B
3D
03
02
00
3E
03
04
00
3D
00
02
01
04
04
02
3D
00
01
3F
01
03
3E
3F
3C
00
03
04
00
03
3B
00
3F
3E
04
03
3C
3C
3E
01
02
02
04
3D
00
3E
3E
00
00
3C
00
02
05
3F
03
3F
3D
04
00
00
00
05
3E
00
01
3F
03
04
01
00
00
3D
3D
3F
02
05
00
00
03
3F
3C
03
3F
3D
00
3D
3C
39
3E
3C
04
09
3C
08
03
3E
3B
03
3F
00
0B
3F
3B
05
00
00
01
08
03
07
3A
00
08
01
3F
01
3C
04
07
3D
34
32
3F
04
00
3E
3D
00
01
03
04
04
3D
00
3D
3F
00
02
3E
3D
3F
02
00
03
3C
01
04
03
3C
3D
00
00
03
04
00
3F
02
3D
3E
00
00
03
3F
00
01
00
3F
03
02
00
3D
3F
03
03
3F
02
00
00
3E
00
3F
01
3B
00
3C
3C
3B
00
00
00
01
3E
3D
3F
3C
00
04
01
37
02
00
3E
00
00
3F
00
3D
03
00
05
0A
01
3B
07
06
04
03
3B
02
05
02
00
38
3A
05
03
03
02
06
05
33
00
03
02
3E
00
3F
03
02
00
00
3D
3F
02
3B
00
05
02
02
3F
00
3C
3E
01
01
03
3D
01
3E
3D
3E
3D
01
00
03
02
01
02
01
3C
3E
3C
3E
01
05
03
3F
01
03
01
3C
00
02
01
05
04
3D
03
3C
3E
02
00
04
03
3F
05
3D
00
01
04
05
03
3E
01
03
3D
03
00
3C
02
05
3E
3E
3C
3C
3F
04
07
06
03
39
07
09
10
03
03
2F
02
05
06
01
37
3D
3C
00
06
3C
01
33
04
3E
01
0D
01
3C
07
02
3A
01
06
3F
00
08
3E
06
04
3C
00
0B
07
08
00
3B
03
0D
05
00
3B
38
3F
0A
3A
38
00
3C
39
04
05
3A
03
34
00
06
01
00
02
3A
01
06
06
04
00
39
05
07
08
3C
3B
3D
00
0D
38
3B
39
3C
06
04
07
05
01
37
3C
3B
00
00
36
39
06
08
3E
00
3B
01
02
04
09
06
04
35
08
09
13
0A
02
36
01
04
3F
00
34
39
3E
02
08
02
3A
33
3F
3E
3B
04
03
03
3E
3D
05
3D
3C
3C
01
00
3D
04
3E
00
02
02
04
00
02
00
00
3D
03
01
01
00
02
3B
04
04
02
00
3C
3F
3C
3E
04
00
05
3E
3E
3C
02
01
02
04
03
3C
00
04
03
02
3E
3C
05
3F
01
3F
3F
01
04
3F
02
02
00
01
01
04
02
03
3E
01
33
03
06
3D
00
00
36
3F
0A
3A
03
04
3E
3A
03
3D
00
3C
3F
3C
04
3E
3E
39
3F
3E
3A
01
07
06
00
3F
3E
00
00
01
08
3F
04
07
3C
3E
02
02
03
04
07
06
00
34
09
0A
08
08
00
38
02
0C
3F
37
37
3E
05
07
03
35
3B
31
3C
3D
3D
3C
00
3E
00
00
00
3C
3C
3C
03
00
3C
3E
00
3D
04
03
01
00
03
01
00
00
3C
01
01
03
02
04
3E
00
3D
04
00
3B
02
00
3E
04
3D
3E
3F
01
3C
00
3B
3E
3F
3E
01
00
3F
00
01
3D
3B
3C
3D
01
04
03
3C
02
04
00
3E
3B
00
3E
00
38
36
01
08
3D
0A
07
3E
3A
00
3F
3F
02
3F
3C
01
01
3E
3E
0C
05
03
3B
00
06
08
09
09
3A
03
02
38
38
3A
05
00
02
03
04
3E
04
3D
3C
3E
02
00
3C
01
00
03
3D
3C
00
3E
00
3F
05
00
3B
3D
00
03
01
3B
00
03
3F
02
04
04
00
3B
3C
03
3F
04
03
3C
02
3C
3D
03
04
02
02
00
03
3C
02
00
3F
3D
01
3F
00
3F
00
3F
3B
01
00
3F
03
3E
00
3C
3F
04
03
02
00
00
00
01
06
3D
03
04
00
3D
07
0C
06
07
00
03
03
04
3E
3B
00
00
08
3F
3B
3B
07
03
01
09
05
00
3B
3C
3C
02
03
3F
3F
3B
01
00
3C
3C
03
3C
01
04
3F
03
02
3F
3D
3D
3B
00
01
3F
02
00
01
05
04
04
3E
00
3F
01
03
01
3F
01
3D
3C
00
00
3F
02
02
01
01
00
01
3D
3D
00
03
00
04
04
3B
3E
02
00
01
3E
02
3E
00
3C
3F
03
03
3D
03
3F
3A
00
00
3E
3D
04
00
06
06
3F
3E
02
04
0E
09
06
39
04
05
14
09
01
34
0B
03
03
02
00
3A
00
01
00
38
01
3E
02
00
3C
04
00
3C
06
06
3D
04
09
00
02
06
04
05
3F
3D
3F
09
0A
02
3D
3F
06
0A
07
07
3A
3C
07
05
37
3D
05
05
3B
3F
04
3B
03
37
3D
02
08
3D
01
3F
02
05
10
08
01
37
00
05
08
03
01
3E
09
0B
3C
39
00
3F
0A
08
02
3D
06
38
01
3E
3D
00
3A
37
03
02
03
00
00
07
3B
3E
0B
0D
03
37
05
07
10
0C
00
36
03
09
02
01
3C
3E
03
0A
07
38
3E
37
3F
3C
00
3D
3F
04
04
00
02
03
00
01
00
3C
04
3D
3F
3C
3D
05
00
01
01
04
01
00
3E
00
01
3D
3D
3E
04
02
02
03
00
3D
05
00
3F
02
3D
00
04
01
3C
04
01
3F
04
02
03
02
3E
3D
03
00
04
02
3B
02
02
3B
00
3C
02
02
01
03
3E
00
07
05
02
3E
36
3D
03
3E
02
3F
3C
01
3F
3D
05
0D
09
3E
05
00
02
00
09
00
00
02
02
36
01
38
3D
0B
05
06
02
06
05
3C
3C
07
06
37
09
03
00
04
08
3C
00
08
08
09
00
35
05
0E
0A
0F
3D
3C
0D
09
08
02
3C
01
02
0C
02
39
08
3E
3D
3E
00
04
03
3F
3D
3D
3E
00
3C
3C
3D
01
01
01
04
01
3E
02
3E
04
3E
3D
3F
3E
00
00
00
00
3D
3C
3D
3C
3B
05
03
02
03
01
3F
00
3E
02
01
3C
00
3C
04
00
00
3D
00
00
01
3D
3E
3D
3D
3E
3C
05
3B
3F
00
3E
3F
02
3F
00
04
3F
3E
05
00
3F
0E
3D
3B
3F
01
04
38
3A
00
07
04
3C
04
3F
3E
01
3D
00
3E
03
06
3F
01
05
00
01
00
3E
3D
3B
04
00
3D
3C
03
00
3D
00
3F
00
3E
3E
3D
3E
00
02
01
03
3F
3F
3D
3C
3D
3F
05
3B
03
02
02
02
02
04
01
3F
02
00
3E
01
05
04
3E
00
02
02
3C
00
00
05
01
3E
3F
04
3F
00
04
3C
00
3C
3F
01
00
02
3D
02
3E
03
3F
04
00
01
3C
00
03
3C
04
02
00
3E
3E
3A
00
04
06
3C
01
01
00
3D
3E
05
02
3A
03
04
01
04
00
3F
05
04
3E
00
00
02
3E
3F
01
00
3D
02
3F
03
3F
3B
3D
01
03
00
03
00
02
05
03
04
3D
3D
04
04
02
02
3F
01
3E
00
04
3D
3C
00
02
3C
03
00
00
03
02
00
3B
04
3F
3D
01
03
00
3D
3C
02
01
03
05
3E
01
05
00
3E
3C
00
3E
3D
3B
02
00
02
02
3B
3F
04
00
03
3C
04
02
3D
02
0B
07
07
05
3C
3A
0F
02
00
3D
3A
00
01
03
3F
04
3E
05
03
3D
06
3D
3C
01
05
00
01
03
37
3F
03
3F
02
00
37
3F
00
3D
3F
08
3B
04
00
3E
3C
01
3C
01
3F
3D
00
05
39
00
3A
02
00
3E
00
3B
3F
3D
00
00
3D
04
3C
3D
00
3D
01
04
06
08
01
03
37
00
05
03
02
00
01
06
3E
3D
3C
03
3A
3F
02
00
05
3C
3A
3D
01
3C
3C
3E
39
04
01
3C
3E
3E
39
3C
0D
00
08
00
3A
3D
09
3E
3F
3F
3C
06
39
00
02
3E
3F
05
3B
3F
01
02
01
05
3D
37
01
3E
00
00
05
01
3E
3A
00
3C
03
3E
3D
3F
02
04
3C
3D
01
02
3D
02
00
3C
02
3C
00
3F
3E
00
3C
04
3D
03
00
00
00
3E
00
03
3E
02
3C
3E
03
01
3C
3D
03
00
04
3B
01
3B
02
3F
00
00
00
3D
3E
02
3D
01
00
03
3F
03
00
3E
01
3D
01
3E
00
3F
3F
3C
3F
04
03
3D
03
00
06
3E
3B
3E
3F
02
3D
3F
3F
00
3D
04
3F
03
3B
07
04
39
3E
01
3C
03
01
3A
3D
03
3E
3C
00
3C
01
3D
00
00
02
01
07
07
00
02
01
01
04
3B
39
3D
02
04
3E
00
3F
03
00
38
00
3F
3A
3E
3C
3A
3F
3D
3C
02
3F
03
00
3A
3F
00
04
00
3E
04
3C
02
3C
3F
00
3B
3E
3E
00
01
3D
04
00
00
01
3D
00
3C
05
3F
3C
00
3D
3C
3D
00
01
3B
00
3F
3E
02
03
00
3E
01
3E
00
03
3F
05
05
01
00
3F
02
00
3C
3C
00
01
03
03
01
03
03
3D
05
3E
3D
00
3D
00
00
01
3D
02
03
00
02
3D
02
3D
3F
3F
00
04
00
05
01
3F
3F
00
3D
02
04
02
03
05
00
00
3F
3C
3D
00
3D
3D
00
3D
3C
3D
02
00
3B
3C
02
04
01
02
00
02
02
3E
02
3F
01
3B
3E
3D
3E
04
3E
01
00
00
3E
3D
3C
00
3C
3C
04
02
00
3E
04
00
3C
03
04
00
03
3C
00
05
3B
3B
00
01
01
3F
04
03
3B
3B
04
3E
01
01
01
3E
3D
3C
02
00
3D
3C
02
00
3B
00
3F
00
01
01
3B
00
02
3F
04
05
01
05
02
3D
03
3E
3D
3C
00
04
3F
00
01
03
04
02
3F
00
3B
3C
3E
03
00
00
03
00
03
04
3C
04
03
00
01
3D
3F
3D
3D
00
3B
00
03
3D
3F
00
3E
00
3C
01
04
00
05
3C
3E
3F
04
3C
00
3C
01
3C
3C
3D
3E
03
00
3C
05
00
01
3E
3E
3D
3C
3E
02
3E
3C
01
3F
3D
04
3C
3B
03
02
3E
03
3D
3E
00
3F
03
3C
04
03
3E
3E
00
00
3C
04
04
04
02
3D
3E
3E
01
02
00
3B
3D
3E
3D
02
00
3D
3D
3D
3D
01
3D
3C
00
00
3C
01
00
00
02
3E
3C
03
04
04
02
04
01
3C
01
3C
3B
02
3E
3D
05
01
02
3F
01
00
3F
3F
03
3D
3F
03
00
02
3E
03
3D
3E
3C
3C
03
03
02
02
03
03
03
3E
03
03
01
00
04
00
3B
3E
00
02
01
00
04
03
3D
3F
00
00
3C
3F
03
3B
00
01
3F
3F
3E
3C
3C
02
00
00
00
3B
00
3C
02
3E
3F
01
3D
3D
3D
3F
3D
3B
02
02
3E
3C
03
3D
3C
3C
01
01
04
3E
3D
05
03
3C
3B
01
3E
00
00
3F
04
01
01
3C
3F
02
02
00
3B
3E
05
04
02
3D
3E
01
3C
00
02
02
02
00
03
3B
3E
3F
03
3C
03
3D
3F
03
05
01
3F
03
00
03
02
00
05
02
05
05
01
3E
3F
00
3F
00
05
03
01
02
3D
02
04
01
00
04
3C
03
3F
3C
02
3F
3F
3E
3F
00
3B
02
00
01
05
3F
3D
3D
00
3F
01
00
01
3E
3C
00
01
3E
3F
00
3C
04
03
3D
3B
04
04
3C
01
3D
3D
3D
00
04
02
3C
02
04
03
04
3D
3E
02
3C
3F
03
01
3F
01
3E
3E
01
3E
03
02
03
03
00
3F
3C
3F
3C
03
00
3E
00
03
3E
00
00
00
3F
01
3F
3C
01
3D
3E
00
02
3F
3D
02
3D
01
01
00
3F
00
3D
03
00
3E
3E
02
3D
02
00
3C
03
02
02
3E
3C
02
3C
02
04
00
3C
04
3B
3F
3D
02
04
3D
3D
04
02
03
3C
04
3F
3E
3F
00
02
3F
3D
01
3C
3D
00
04
3E
03
3E
3F
05
01
3E
3E
01
03
04
00
3E
02
3C
00
07
03
08
00
33
3D
01
01
00
3E
04
03
04
3C
3E
00
3C
3E
00
00
04
06
36
01
3F
3D
05
06
03
00
3A
3D
03
07
05
08
3F
03
3F
00
00
3C
02
04
3D
02
3C
00
3E
3C
02
03
00
01
3E
03
3C
3F
3F
3E
04
04
02
3E
3D
3F
3E
00
02
05
03
3C
04
3C
00
00
00
3F
3E
03
3D
01
01
04
00
04
3B
3E
3C
00
3D
03
3E
00
04
3B
02
3C
02
3F
3C
00
00
01
03
00
3E
05
00
06
02
3E
06
06
01
3E
00
02
3F
01
00
01
02
3E
3F
06
3E
3D
06
03
02
07
06
03
3F
05
0C
08
37
02
3D
00
00
05
00
00
3E
03
3D
04
3C
01
3D
3E
01
00
3D
00
3D
3D
03
00
3F
04
00
03
02
00
3F
3E
04
01
04
03
00
3C
02
3F
01
3F
04
05
3D
3F
3D
02
3D
3D
3D
3C
04
3E
03
3F
3F
3F
3C
01
3F
01
3C
00
04
3F
01
3B
3E
04
02
02
02
00
3E
05
3F
00
3D
04
04
3D
39
06
3E
00
07
03
3D
02
37
3C
07
08
03
04
33
3E
06
00
03
06
35
01
00
00
08
0D
39
00
02
06
0C
09
00
3F
09
37
33
0E
01
06
02
00
04
00
02
00
02
08
3E
02
37
03
01
04
3B
02
3A
35
02
01
05
08
3B
37
3F
04
03
07
3F
3F
3E
01
38
0C
0B
37
05
07
3B
3F
00
00
03
03
3A
05
3A
3A
3E
04
3D
09
03
3F
01
03
0C
08
3A
3D
3C
02
03
07
3D
02
02
00
07
03
3F
3A
05
02
08
3D
37
3E
05
0C
04
06
33
3F
06
03
04
07
36
3C
04
04
09
0E
00
37
3C
00
0E
06
00
3F
3D
3C
3C
01
02
00
04
00
03
00
3E
00
3B
01
01
02
02
04
3D
3B
00
3E
00
04
00
00
3C
00
3C
3F
03
00
02
01
03
01
3C
00
00
3E
3C
3D
02
3F
00
01
03
02
02
04
00
3E
02
00
05
3C
3D
03
3D
02
3D
01
04
02
3D
02
00
3F
3B
3D
3B
04
01
3C
06
00
35
05
00
3F
05
39
37
3C
3E
00
03
3C
3D
3A
3C
06
03
02
3C
01
03
03
05
03
3D
38
01
3F
02
08
06
03
0C
3B
34
08
06
02
0A
02
3E
0A
3E
3C
02
04
00
05
33
3B
05
05
02
06
3B
3F
08
06
09
04
00
3E
03
00
06
09
04
00
03
01
3E
02
03
3E
00
3E
3D
02
3C
02
3C
00
3F
02
04
3C
3F
00
3C
3C
3E
3F
04
01
04
3C
3E
00
3C
02
00
3B
3B
00
01
00
3F
03
00
3D
04
3F
3F
00
3F
00
3E
03
00
02
00
03
3D
02
01
01
3D
00
3E
3E
3F
3F
02
05
3F
04
02
3B
09
3A
39
39
3C
38
3D
3E
3B
3C
04
3D
3F
07
04
02
3B
00
39
06
04
05
03
3A
37
00
06
00
03
3D
02
3F
3F
3C
3E
04
02
3E
01
3C
02
02
3C
3F
02
02
01
3D
04
3C
00
3E
3C
3E
04
3C
03
04
3E
01
3E
3B
3C
00
3D
00
03
02
3B
02
00
01
03
3C
3E
02
00
3F
3E
00
3F
01
3E
05
00
3F
3C
05
3D
3C
02
3E
03
01
3D
3C
3D
05
00
3D
04
01
03
03
03
02
02
02
01
00
3C
3B
00
04
01
04
05
07
01
3D
37
06
06
02
05
00
02
3E
00
06
02
00
3E
00
3B
3B
3D
01
02
01
05
00
3B
00
04
3F
01
02
3D
01
3D
02
3C
00
3F
3C
00
3F
00
00
04
3D
02
3D
02
01
04
3E
00
3F
3C
3C
05
00
03
3C
04
03
02
03
3D
00
3C
00
04
02
03
3E
3C
3F
04
04
05
02
00
3B
00
03
01
3F
3E
02
00
00
3F
02
3F
03
01
3F
00
3E
04
3F
04
3B
02
00
01
3B
3A
00
38
03
04
08
04
00
39
01
0A
0F
04
3A
3E
06
0E
0E
04
00
03
3D
00
03
05
3E
01
05
01
3A
3E
3D
00
37
3D
3D
39
02
02
3F
3B
02
07
00
3E
06
05
03
01
37
3A
02
08
04
3B
39
03
04
05
06
01
00
3F
05
00
3E
03
03
3C
02
3B
3E
03
3F
3B
3C
04
07
04
00
3B
05
0C
05
00
3E
38
3F
01
01
3C
02
05
05
3B
00
04
03
3D
00
04
00
02
38
3A
01
3D
3F
38
3B
35
02
02
06
02
03
3B
3D
0B
12
03
39
38
00
0C
0C
02
3F
3E
00
04
00
00
00
03
3F
00
39
3C
3E
00
3C
00
3E
03
3D
3C
00
3C
3E
01
3C
3E
03
03
04
04
04
3F
3E
3F
01
00
3D
04
3F
04
00
02
00
01
3D
02
3D
02
3E
01
3B
3D
04
04
3C
3D
3C
00
3F
00
01
01
00
00
3C
04
3C
3E
3F
3D
00
02
3F
3F
3E
02
3D
03
01
3C
00
01
05
3F
3C
3F
02
02
3D
04
3A
32
00
04
0B
02
3F
3B
3E
00
06
09
3C
39
38
00
01
05
3D
02
05
04
3B
06
01
38
06
07
3C
01
00
00
3C
3A
01
3C
3A
05
3C
01
04
07
3F
3A
01
0D
08
3A
38
37
07
08
0A
04
00
3F
02
08
09
02
01
3D
3F
3B
3D
07
08
03
3F
00
3E
3F
3F
00
00
02
01
03
00
3C
00
02
3C
00
03
3D
02
3D
02
01
02
3D
02
3D
3E
02
3D
03
02
05
3D
01
04
02
3F
04
03
01
3F
3D
04
00
00
00
3E
02
00
00
3F
01
05
02
04
01
02
3F
3D
02
00
00
00
02
00
02
05
00
3F
3E
03
01
05
07
04
38
05
3A
3A
02
09
02
02
04
3D
03
00
3F
05
3E
02
38
37
3F
05
3C
3F
3A
39
3E
04
3B
3D
09
00
02
00
3E
3C
3E
3C
03
3E
01
02
3F
02
04
00
01
3E
04
3B
3F
00
3C
3D
02
3C
00
04
3C
05
04
3F
01
3F
3E
03
00
01
04
00
00
3C
3C
3E
3D
04
3E
00
03
3E
00
3C
03
3B
03
00
3E
3F
3C
3F
03
04
03
3F
3F
02
3B
3C
3B
05
02
3E
3F
00
01
00
03
00
00
06
07
04
04
3B
3C
3C
00
00
03
3F
3D
36
02
00
3D
3D
3F
3F
3D
3D
3D
03
05
07
00
00
3D
00
00
05
01
08
04
03
3D
3E
03
3F
3E
00
03
3C
03
00
02
3C
00
04
3E
00
00
3E
05
3B
00
3F
04
03
3C
00
04
00
02
3C
3F
3B
3D
3D
00
00
3B
3F
00
05
3F
3D
00
00
00
3F
00
04
3C
02
3E
01
3E
3C
02
01
02
3E
01
03
04
03
3F
3E
00
3D
3F
00
01
00
05
00
0A
02
03
0A
07
00
03
00
05
04
00
05
36
3C
03
06
04
00
3C
3B
3D
0C
01
01
01
00
06
09
3F
3F
00
0A
04
03
02
01
0A
3A
3E
0B
3D
00
08
3F
3E
01
06
3C
01
3E
00
06
01
34
37
3A
3D
08
00
38
3C
02
02
06
3F
3F
03
07
3F
3C
03
3E
3F
08
08
05
00
01
3B
00
00
07
03
00
36
38
3D
02
3E
3C
3E
3C
06
00
3E
00
07
09
05
3D
3B
3D
3C
00
39
08
3D
0A
0A
0C
0E
0F
00
3C
00
3C
07
00
06
03
3C
39
00
09
00
01
31
38
00
0A
00
3E
04
3A
03
02
05
00
3D
07
02
05
02
01
3E
01
04
3D
00
3C
3F
05
03
3B
3C
00
00
04
3F
04
3D
00
00
3E
00
3F
3E
3C
00
04
02
3C
3E
03
3F
00
3E
02
3D
3B
3D
3C
00
00
3F
02
00
01
02
01
05
03
3D
03
00
00
00
3C
03
03
05
00
3F
00
3F
3C
01
00
3F
3D
3F
01
04
02
3E
04
00
04
05
03
05
05
02
03
04
3C
3F
03
3E
36
3A
05
01
04
00
3B
3F
3E
00
3C
00
09
3E
09
07
39
39
3E
06
3F
03
02
0C
01
06
05
3F
02
03
3E
3D
01
00
39
38
3B
07
08
3C
3E
36
37
00
07
38
38
38
3E
07
04
04
3C
00
04
3E
08
01
05
3C
3E
3C
00
3D
3E
05
3F
02
03
03
04
03
00
04
05
3D
01
03
3D
02
03
00
3F
00
04
3C
02
3E
03
3E
01
03
00
00
05
05
03
00
00
3E
04
02
04
3D
01
02
00
00
01
3F
04
3D
00
3F
04
3E
3F
05
3D
3F
04
03
3F
00
3F
01
01
03
02
39
3F
34
07
0E
3B
03
09
01
38
3F
00
3B
00
39
3D
05
3E
06
37
3F
3E
06
01
05
3F
01
3B
00
02
03
03
3C
3A
32
00
00
00
3F
3D
3F
02
03
3F
02
3D
00
3C
00
01
03
01
02
3F
05
3C
3F
00
03
01
05
3D
01
3C
01
3E
3E
00
00
05
04
00
01
01
3F
3D
3C
00
3E
04
3E
01
3E
05
02
02
01
00
3F
3E
3C
00
3E
04
05
3D
00
3C
02
04
3D
3D
00
04
03
3E
00
3C
06
05
00
3F
3B
3A
3B
06
38
3F
08
05
0A
02
3F
03
07
00
01
06
04
01
3D
3F
00
03
00
01
3D
3E
0C
0A
07
05
02
37
01
01
01
3F
3D
3C
3D
03
3F
3C
04
3C
00
04
3E
00
05
04
03
00
03
02
00
04
01
03
3C
01
3C
00
01
03
02
3E
03
3B
04
02
00
01
02
3C
03
01
05
00
00
01
04
3C
02
03
00
3D
03
03
3F
00
3F
3E
05
01
00
03
03
03
02
3C
3E
04
01
01
3E
00
3C
02
00
3F
01
08
00
37
00
01
0E
00
3C
38
03
3C
08
02
01
02
3C
3C
0D
05
02
00
38
35
06
02
0B
3D
00
33
3F
05
00
03
09
39
04
05
00
3B
07
3E
00
00
37
3B
06
39
03
03
00
00
0A
3C
08
07
3D
00
3F
3A
3E
0D
3E
3E
3D
3D
3C
00
00
3C
01
39
3C
01
3B
3D
0B
04
04
03
3B
3D
09
3F
00
0B
3E
3D
3B
3A
04
08
3D
3B
36
36
0B
07
09
3D
00
31
05
3F
02
02
3B
39
0C
08
3B
3E
38
08
0D
04
00
36
3D
01
08
3E
04
00
3B
3E
0A
09
00
3D
34
31
02
06
02
3B
33
3A
3E
04
3E
02
3D
05
01
00
01
01
3E
01
3D
02
05
05
3F
3F
04
3D
01
01
04
3E
04
00
05
3B
3D
3F
3B
00
3C
03
04
00
03
02
02
00
3D
3C
02
3D
04
01
3E
3E
01
00
04
3E
3D
3C
00
3D
00
05
3E
04
03
3D
02
3E
02
3D
01
02
03
3F
03
03
06
04
3D
3D
33
02
03
37
3E
3E
3A
05
13
03
00
01
37
06
04
3E
3F
3E
37
3D
08
04
00
3B
36
3C
00
0A
08
07
3C
3C
01
06
38
07
0A
00
3E
08
3A
3E
04
01
06
04
3A
3B
0C
02
08
02
03
3A
01
3E
03
07
05
37
35
39
03
0B
01
00
3B
32
01
00
03
3D
3F
00
02
3F
00
3C
02
03
3C
3C
00
04
01
04
3C
03
04
3C
01
3F
05
3E
3B
3C
03
01
3C
3C
02
3E
3D
3E
3E
3D
3E
00
00
04
3B
3F
3F
3D
01
3E
3E
3C
3E
00
3D
3F
3D
00
01
3D
3E
00
3D
3E
02
3F
01
00
00
3D
00
04
04
03
3F
3F
04
3D
00
00
03
3E
01
3A
3F
03
00
05
3E
03
00
03
03
04
3E
06
3D
3C
02
00
02
04
00
00
3F
02
01
00
3D
02
03
00
02
01
3E
3E
00
3C
00
3F
3C
00
00
02
00
3F
00
3C
00
02
00
00
04
04
04
04
02
00
3B
00
03
00
02
3C
00
05
3C
00
02
3B
3E
3E
03
00
00
04
01
3F
02
3E
04
3F
04
3F
02
04
3F
00
3E
02
3F
03
3D
3F
3F
04
02
00
02
3C
00
04
3F
3D
3D
02
01
01
3D
01
00
06
02
3A
02
3D
00
01
3C
3E
3C
3E
00
3F
01
3F
3F
00
3D
3A
02
3C
00
03
05
3D
04
3C
3D
00
3E
3D
01
04
03
01
02
04
3E
04
01
03
3B
01
00
00
3D
00
3F
3F
04
3C
00
02
01
03
00
03
02
3D
3C
3E
3D
3D
01
3C
3D
3F
3B
3D
3F
00
02
04
3F
3D
3D
3D
03
04
01
01
01
03
02
03
01
00
3F
03
01
03
04
03
04
04
3F
3E
01
03
3B
00
03
3C
3B
00
02
3E
00
05
3D
3C
00
00
06
09
01
3D
3D
02
03
03
3F
3C
39
03
05
02
03
3F
3F
03
04
3B
3E
3F
03
3F
04
3D
3F
01
3F
04
04
3C
3F
03
02
00
05
01
3B
3D
01
00
3F
00
3C
00
00
3E
01
04
04
01
00
3E
3C
02
02
04
3F
02
03
3E
3E
3D
02
3A
03
3F
00
00
39
04
03
04
00
00
3C
3E
02
3C
3C
00
02
02
3D
02
02
01
03
05
02
3A
03
01
3C
00
04
00
00
04
3D
39
00
07
3C
05
3F
3D
08
02
02
38
00
00
06
00
05
3A
01
02
03
3C
3E
00
3F
03
04
00
3F
3C
00
00
3E
02
3D
00
00
3D
3C
3C
05
3F
01
3F
01
3C
02
04
00
00
3C
3D
3C
04
00
01
00
02
03
3D
3D
3F
00
3F
02
02
01
3C
3D
02
3F
3D
3F
04
01
3E
04
00
04
05
3C
3F
04
3B
03
04
04
3E
04
01
04
02
00
3B
3D
04
02
3F
05
3D
03
05
3F
00
03
00
00
03
3E
3D
00
3E
3D
00
3E
00
01
3E
3F
03
00
3E
3E
01
02
02
3C
02
03
04
3C
02
3C
3F
3E
01
3C
3F
3F
00
02
00
39
3F
00
3C
00
3F
02
02
3C
3F
04
05
03
00
3B
00
07
03
02
01
00
00
3B
3F
03
05
00
3D
3B
03
00
00
3F
03
04
01
03
04
3B
3E
3E
02
03
00
03
3B
3F
00
00
04
3E
04
3F
00
00
04
3F
00
03
05
3E
01
00
3B
3C
3F
3F
00
3E
00
04
00
03
3D
04
3F
05
3F
00
00
01
00
00
3F
03
04
05
3E
04
04
02
3F
3D
3F
3B
02
02
01
3B
01
3E
3E
3C
04
04
02
00
3D
06
01
04
3D
00
39
00
02
02
3F
05
3E
02
3F
3B
03
06
08
01
03
3B
3E
00
01
03
3D
03
3E
3A
39
00
08
3E
00
04
03
3B
3C
02
00
04
03
3D
3C
00
01
3F
03
05
00
01
3C
00
3C
04
01
02
3E
02
01
3E
00
02
01
00
00
3D
00
00
02
3F
01
00
04
02
3B
3F
00
3E
3F
00
00
3F
3E
3E
01
01
00
03
00
04
3F
00
3E
3C
3E
01
00
02
01
3B
04
3F
3C
01
03
3D
3F
05
3F
00
00
02
05
3F
03
3D
07
06
04
06
00
01
3E
00
01
3B
3E
02
01
3D
3B
3F
06
00
06
00
00
00
38
02
00
05
03
3E
3F
02
3D
04
00
01
04
3C
3F
3E
3D
03
03
04
05
3E
00
01
3F
03
05
3B
3F
03
3D
00
03
01
3E
3F
00
05
3D
00
3F
05
04
00
3E
05
00
3F
04
01
00
04
3E
04
02
3D
04
01
3D
04
3C
00
02
02
3C
04
04
03
01
3D
04
00
00
3D
3E
3D
3C
3B
3A
00
3F
00
3F
3B
01
3E
01
0A
0A
3E
3D
03
07
06
0C
04
3B
08
00
03
05
3F
00
3D
02
3D
01
01
3D
3C
39
3D
05
3E
00
07
00
00
01
00
3F
00
00
00
08
03
37
3A
08
04
06
00
3D
06
04
03
03
3C
3E
3D
05
00
3D
05
07
3F
03
01
02
02
3F
05
3F
04
02
3E
39
3D
07
0C
04
00
37
03
01
05
04
3E
05
08
02
3D
00
3D
00
05
00
02
01
07
3B
3F
3D
3B
39
01
37
3E
00
04
00
00
04
01
3E
0A
0B
06
39
02
00
06
0D
05
3E
00
08
3F
06
00
3B
00
0B
05
3C
00
00
3F
3F
3E
00
3E
3E
03
03
3E
00
3E
02
3D
3E
01
00
01
00
05
00
04
00
05
3D
03
3F
02
3C
03
3F
3E
3F
03
00
00
04
03
00
3F
01
3F
04
01
03
02
3F
3C
3F
3E
01
02
04
03
04
01
3C
00
00
3E
3D
3F
02
00
04
3D
00
03
01
02
04
3B
3C
09
3F
03
3D
3F
3D
01
3D
00
04
3C
01
00
3F
08
09
06
3C
03
3F
3F
03
06
04
00
08
00
3A
3E
3D
3B
06
0A
3E
3F
04
02
3F
3C
3F
3C
35
3F
00
04
07
00
02
01
07
08
04
3D
39
3C
05
05
02
3C
00
06
07
06
02
3A
3F
04
06
39
01
07
01
3D
02
03
02
3E
00
3C
3E
3D
04
3D
01
00
00
01
3D
02
03
3B
02
00
00
3F
01
02
3F
3C
3F
03
3C
03
00
3E
00
02
3C
3D
3D
04
3C
03
03
02
06
00
00
02
3E
07
00
3C
00
3E
04
01
04
3F
3D
3F
00
03
02
3F
3D
3B
05
01
00
05
01
01
3E
30
3B
3B
08
0C
04
03
05
02
00
39
3A
3B
00
03
00
0C
09
07
3B
3A
02
05
01
08
00
39
3D
00
3B
08
04
02
3C
3A
01
3D
02
03
00
3C
3F
01
3C
04
3D
3E
02
3B
03
00
00
3C
3C
3D
3B
04
3F
01
00
3E
3C
3C
01
3F
02
03
00
00
00
3C
03
3C
00
05
3F
01
03
3D
00
3E
3D
3C
03
3E
04
05
00
04
3F
03
00
3D
3E
3D
01
00
04
01
3F
00
03
3E
05
00
01
04
3C
07
07
0A
02
37
3A
02
05
01
3E
07
08
0B
37
3B
3D
02
00
3F
00
02
3C
00
00
05
06
3E
3E
37
3F
06
00
03
3C
3D
3C
00
3C
3D
3D
03
3D
00
03
3C
00
02
04
02
3F
05
00
00
01
3C
04
01
03
01
3C
02
00
03
02
00
02
03
01
04
05
3C
3D
3D
3C
02
03
00
00
3C
3B
01
01
01
00
01
01
3E
04
00
00
3D
03
05
01
3D
3D
3B
00
02
3E
3E
3E
00
02
3D
3E
02
04
07
05
01
03
06
01
04
05
02
3C
02
07
0D
01
3A
39
01
00
14
03
39
3A
01
38
0D
03
3B
39
38
39
00
03
0A
06
3A
3B
3B
0A
00
04
0B
3B
07
02
00
00
3C
37
3E
05
3B
3B
09
3F
07
38
3B
00
02
3C
03
0C
3E
39
3E
35
04
04
04
3F
3F
3A
06
05
0B
07
04
39
39
04
38
39
07
06
05
38
38
39
05
00
06
06
02
3C
3E
3F
02
07
00
3B
3D
36
0C
00
00
01
04
3A
05
03
00
06
3F
03
09
08
01
39
00
08
0D
04
38
3A
00
05
13
06
00
3B
3D
3A
0C
05
3B
00
36
39
03
0A
08
06
31
35
01
3F
3C
00
3E
3F
03
00
04
3F
00
04
3C
01
3E
3D
3D
04
3D
05
3D
04
3C
3C
04
02
03
3B
02
04
3D
3F
03
00
01
01
00
00
02
03
3D
03
3C
03
00
00
02
3E
00
00
00
03
3F
03
03
00
3B
3D
01
3D
3E
01
01
00
3D
02
01
3D
01
3F
00
00
07
01
3E
04
38
02
0F
35
3C
37
3F
0E
10
03
3A
3E
38
07
05
3F
3F
3E
39
00
02
3B
01
00
38
36
07
01
02
06
37
00
3C
01
3E
09
0F
01
03
07
39
3B
02
38
05
00
38
37
03
3E
09
03
35
38
07
3F
05
09
3D
00
00
39
03
0B
3E
3C
3F
2F
01
3F
3C
04
01
3E
00
3F
3E
02
3F
00
3C
00
03
02
01
01
03
3F
3C
3E
01
03
04
00
3D
04
3B
05
3C
3F
02
00
04
00
3C
03
00
05
03
00
03
3F
3C
3C
3F
3D
3D
03
3F
02
00
3E
3C
3C
03
01
00
3F
3C
05
05
3D
00
3C
3D
00
3D
3B
3E
3C
38
3B
00
07
18
3A
06
08
04
00
3C
3C
39
01
3D
00
0A
03
05
3C
3F
00
03
05
0B
00
3F
02
04
3A
06
00
39
3B
35
05
02
00
02
3C
00
01
3E
3F
02
04
3E
03
02
3D
3C
00
03
3C
3D
03
3D
3D
00
05
03
02
00
3E
3C
02
01
01
3F
3B
00
00
00
00
3D
3D
3F
02
3D
04
3B
3D
01
3B
3E
02
3D
01
3E
3E
00
00
04
01
00
3E
04
00
03
3C
02
04
03
04
3E
3D
01
02
3F
00
05
3F
3A
3F
3E
04
3B
00
0A
00
04
39
02
3E
00
3B
03
03
3B
00
3E
3D
3D
01
02
3B
3D
3D
0A
05
04
01
3A
32
3E
01
04
3D
02
3E
04
00
3C
3C
01
02
01
01
00
3E
00
3C
02
3E
3C
00
02
3C
3D
00
3E
04
00
3F
3C
3D
01
3F
00
00
03
00
02
3B
03
3C
3F
3B
02
3F
3B
3E
02
03
03
3B
3E
00
00
3E
05
3D
03
03
3C
3D
3D
03
3C
00
3F
3F
3D
3C
3C
00
04
07
01
00
03
3E
3C
0F
3E
3C
3B
04
0A
00
00
34
05
00
0B
02
3C
3B
3F
3E
0A
02
38
3B
35
39
05
09
05
01
39
35
01
03
3D
06
09
37
05
01
3D
39
00
3A
00
01
00
3B
0B
00
0D
3E
3F
00
01
3A
0A
05
38
3D
3B
3C
3F
08
3E
3B
03
3F
01
00
05
3F
00
32
3B
0C
00
37
08
3D
05
3F
36
3C
06
3A
0C
03
00
3E
3F
3B
04
3F
3E
33
3C
3D
0A
08
05
00
39
35
09
0B
3F
04
3A
3D
06
0E
3A
3C
3B
09
07
3F
00
3A
00
3E
0C
07
00
00
00
02
0A
00
3E
37
3A
35
04
07
00
3D
37
36
01
3E
04
00
02
3E
3D
04
3C
00
3E
3E
00
01
00
00
04
00
03
3F
3F
3C
3E
3F
01
3F
3C
3F
04
3E
3D
02
3F
3F
3C
3C
01
03
3E
3F
01
04
3F
3B
03
3C
3E
3D
02
03
04
00
3D
03
03
01
01
3C
3F
05
00
3B
05
03
03
02
02
04
02
3C
3E
01
02
00
3B
00
36
01
01
35
00
3A
3C
09
19
3E
00
3A
39
05
11
0D
3C
3B
37
3E
04
01
00
3E
37
3B
02
09
08
04
3D
3F
05
06
39
00
08
3E
05
03
35
39
03
3F
3E
06
39
37
02
00
0B
3B
3B
3F
00
3A
09
03
3D
35
3B
37
08
02
3D
3A
3B
37
3D
00
3F
05
03
04
3C
3F
3C
04
03
3C
3D
02
3E
01
3C
3C
3F
3C
03
3C
3F
3B
04
00
3D
3F
01
3F
04
3F
04
02
03
00
00
03
05
02
01
05
3F
00
00
00
3E
02
03
3F
00
00
00
02
3E
00
03
00
00
00
00
00
3E
3D
00
05
04
01
03
02
3E
02
3A
02
08
0C
08
05
03
06
03
02
3E
3F
39
3E
3B
3C
08
09
0A
3D
37
3A
07
09
0A
3B
3A
00
01
3D
00
02
3D
3C
3F
35
3D
3E
00
03
3B
3E
00
01
3E
3F
3E
3F
02
3E
00
3D
01
3D
01
3B
02
01
3C
00
3D
3E
02
3D
03
02
04
3F
3C
03
3F
3E
3E
04
3C
01
01
3E
03
03
03
01
01
01
3F
3C
00
00
03
00
00
3F
04
04
05
00
3E
3C
3B
3C
3F
04
3C
3F
02
02
00
3F
04
00
0A
08
3D
05
03
3F
3C
38
0A
03
0B
37
3A
38
3E
03
03
00
3F
00
00
00
03
3F
08
03
00
3D
0A
3E
00
03
3F
05
3F
3B
05
04
02
3C
01
3F
05
01
00
3B
3F
03
3C
00
3C
00
3F
00
00
3F
3F
02
00
3E
02
05
02
02
00
03
3E
02
04
00
3E
01
00
03
3E
04
03
02
00
3F
03
00
3F
04
00
02
02
3F
03
00
03
3E
02
04
3E
05
3E
02
01
00
02
01
3E
3D
3D
00
05
07
07
05
03
00
01
0A
3E
3A
04
05
12
01
38
35
03
06
11
00
39
37
3C
3E
09
06
02
00
01
3A
06
04
07
06
38
03
00
0A
00
05
06
3F
03
05
08
3F
3E
01
00
01
39
00
0A
08
0C
38
3B
39
00
03
03
00
3B
00
05
3A
00
01
03
00
3C
3F
0A
03
0D
09
06
00
04
02
3D
3E
08
04
06
3E
2E
38
08
02
05
3B
3A
3B
06
00
03
00
04
03
3A
37
04
06
03
3C
03
3D
09
07
09
09
06
04
0B
0C
03
3D
03
00
13
03
34
30
3A
01
13
02
35
34
3F
02
0B
06
3B
3F
39
37
05
06
05
04
37
04
3D
04
3D
3C
00
01
3C
3F
00
00
3E
04
3D
03
01
3E
02
3C
3D
02
3E
02
3B
00
3B
02
04
03
01
03
04
02
02
01
01
03
04
3F
01
02
3C
3C
3F
00
03
02
02
3F
3F
3B
00
3F
3D
02
03
01
3D
3F
3C
00
02
04
3C
3F
3E
03
05
3C
3E
00
3C
3B
3D
05
03
03
3E
0B
07
3D
00
35
03
04
17
06
3C
37
38
07
06
03
02
3A
3D
02
02
3D
3E
03
3A
00
03
00
02
06
3E
01
04
05
02
06
0A
09
01
05
38
01
04
00
05
3F
32
3E
04
0C
05
00
35
34
04
06
3E
04
37
02
06
3B
08
05
05
00
00
3B
3E
3B
3B
05
3E
3D
03
3F
3D
01
00
02
04
3F
03
3F
3F
01
3F
01
01
3C
3F
04
00
05
04
3F
3E
01
00
00
00
3D
03
3E
3D
3D
3E
01
3C
02
3E
00
00
3F
03
00
03
04
02
01
00
3F
3E
05
3B
3F
04
00
3D
05
00
02
03
3F
3C
00
3D
3F
3D
03
39
06
09
09
06
04
03
05
04
08
05
01
02
00
3C
3D
03
3F
00
01
3E
39
04
04
08
00
3D
39
00
00
3E
05
3F
03
3E
3E
04
00
04
3D
02
01
04
04
3F
01
3E
02
00
3E
3E
01
04
3C
03
03
3C
02
00
04
04
02
3E
3C
03
00
02
01
00
04
3F
02
02
3E
02
00
3B
02
3C
02
3E
3E
02
00
3D
01
3E
3C
04
3C
3E
3D
04
00
3C
03
04
01
00
3B
00
02
3D
3B
00
00
3E
3E
00
01
0A
09
00
03
06
02
3F
3C
08
00
04
3E
3B
39
3D
05
00
3D
3A
3C
3D
03
00
3D
05
06
00
3C
00
00
05
00
3F
04
02
04
05
05
3D
00
00
01
00
3F
01
04
00
01
03
00
3F
05
3E
05
00
03
00
00
03
3E
3C
00
3C
3D
05
00
3F
05
00
04
00
04
04
00
3C
04
3C
00
00
05
3C
00
01
03
05
3D
04
04
01
00
04
3F
00
00
02
3F
05
3F
02
02
04
3C
01
02
04
03
06
01
0B
06
06
04
00
08
3B
00
00
06
0B
00
34
38
02
01
06
3E
37
36
39
08
05
05
01
01
3D
03
3E
03
3E
00
3A
02
3C
0B
03
00
00
00
3E
3F
01
04
04
3E
05
3F
3A
38
00
02
02
36
3A
39
00
08
3C
3E
39
00
02
3E
3D
00
06
3D
3E
3A
02
03
02
09
05
00
05
00
3D
00
06
05
0B
3C
35
3E
06
04
07
00
3E
3A
3E
04
3D
02
3D
00
3C
3B
00
3B
05
01
02
06
00
3F
08
08
07
02
08
04
05
00
01
01
0A
01
3C
36
03
07
0E
03
3B
32
3F
05
04
3F
3A
3F
02
01
3E
3B
3D
00
00
02
3F
00
3F
00
3C
00
03
04
03
3F
3C
04
01
02
05
01
3C
03
3E
3F
03
00
00
00
02
3F
04
3F
00
00
3E
3F
3F
3E
04
00
05
05
01
02
3C
00
05
00
3D
00
3F
3D
02
01
01
3C
00
04
00
05
3F
00
02
00
03
04
03
02
03
04
3C
03
03
02
3D
04
00
02
3E
09
3E
07
0C
01
00
3B
3D
00
07
07
3F
38
3E
05
02
04
3B
3E
3E
00
05
00
01
00
00
02
02
3A
00
01
03
00
00
08
09
04
08
05
02
3E
03
02
05
07
05
3E
37
3C
05
06
03
00
3C
34
3E
02
3F
00
00
3F
00
03
00
04
01
01
3F
3C
04
01
04
05
00
00
00
3D
02
3D
04
02
00
03
00
04
3D
3C
3E
03
03
3F
3F
02
3B
02
00
01
3B
00
00
04
04
00
04
3B
00
00
3D
03
04
3E
3D
00
04
3E
3E
02
05
05
05
03
02
3B
05
3F
3C
3D
3C
3C
00
02
3D
3C
02
00
02
3E
02
3E
05
01
34
02
00
02
0D
3A
00
06
07
01
3E
00
3F
06
3E
3E
07
04
09
3C
00
00
07
05
04
00
00
39
3D
3A
03
01
3A
3D
33
3B
02
02
00
3C
04
04
05
03
04
3D
3B
3C
05
3C
3F
05
05
01
05
00
03
00
02
3E
04
3B
3C
03
00
01
3E
3F
03
04
01
00
3D
03
00
00
3F
03
04
3D
00
00
3D
3E
3E
02
3F
3E
3F
3B
3D
3E
04
3D
02
00
03
3E
00
3F
04
3D
01
05
04
00
01
04
05
00
01
00
38
3F
00
3F
3A
38
06
3F
08
3C
3F
03
00
3F
3D
01
03
00
3D
3D
3D
03
3F
3D
39
3F
09
03
02
01
03
3A
3D
3F
3C
04
3D
3E
02
03
02
3E
03
01
3B
00
3C
3F
00
3B
00
03
00
04
00
00
3C
3F
00
04
04
00
04
00
03
03
3D
05
01
3E
3B
00
3E
04
01
3E
01
3E
05
02
02
02
00
3F
00
3B
3E
00
04
00
3F
03
01
3D
02
01
3C
01
3D
04
3D
00
3F
00
08
02
00
00
00
3B
08
02
3A
3F
3F
09
0C
01
3E
37
00
3D
09
00
00
3A
01
3A
06
0B
00
02
35
35
04
03
03
06
00
34
3C
09
38
08
3F
31
00
00
3C
39
0A
3E
3A
03
3C
3D
08
00
02
00
3B
00
04
3F
05
07
3C
3C
3F
3E
06
0D
3E
3E
02
3E
03
08
02
01
07
3A
3B
01
3F
3A
0E
02
08
00
3A
00
03
00
3C
08
03
37
00
3A
00
0A
3D
38
3B
3C
06
05
00
3B
06
35
06
04
3F
3C
38
38
0B
0A
35
38
39
0D
10
02
3E
3D
3F
04
05
3D
02
3A
3F
3E
06
06
03
3D
34
39
00
05
06
04
34
3A
00
04
02
3E
3B
03
3C
3D
05
01
00
3C
00
00
03
3E
00
01
3B
3F
3C
3F
3D
02
3D
3B
00
3E
3E
3F
01
3C
3D
00
02
00
05
02
3D
03
3E
03
3F
04
3F
3F
3D
05
3D
3E
3E
3B
3E
04
03
01
3F
00
00
3C
03
02
04
3C
00
03
00
02
02
3E
03
01
05
04
02
00
35
00
08
39
00
3D
3A
0A
12
3E
02
00
00
01
04
3A
05
3C
3A
3E
03
01
3E
00
38
3D
3D
08
0D
09
3C
3E
3C
04
3E
07
05
3C
3F
3E
36
00
02
04
0A
3E
34
36
06
3B
0E
07
3E
3F
06
3D
02
09
02
39
39
37
03
08
3F
3E
00
2E
00
04
01
3D
3F
3E
3E
3C
02
04
3C
05
02
04
3C
01
03
02
3F
03
02
3D
02
3E
04
3F
3D
02
3D
3E
03
04
01
04
02
00
3E
3E
00
3F
00
00
3C
3D
04
3E
02
04
3B
00
01
3E
3F
3D
3B
3F
05
05
3D
3E
3E
03
3C
3E
3E
3E
04
3C
3C
3B
3D
02
03
3D
3D
00
02
3E
01
3E
01
00
02
3D
03
08
3C
02
03
01
3F
02
09
05
01
3B
3F
01
0B
06
05
3B
04
04
3E
3A
3E
0A
02
00
3F
03
01
00
01
3D
3D
03
3E
3D
3C
04
02
02
03
3B
3C
02
04
02
00
05
3E
04
04
3C
00
04
04
3F
04
3C
01
00
01
02
00
02
04
03
03
05
04
00
3D
02
00
04
3F
00
3C
3E
03
3D
3E
00
00
03
3D
00
3D
02
02
00
03
03
3D
3C
02
3C
00
01
00
00
3E
3D
3D
03
02
05
03
00
00
04
03
05
00
3A
3F
3E
04
3F
3B
02
3E
03
3C
00
05
07
3C
01
05
3E
3D
36
3D
02
3F
02
3E
3F
00
05
00
3C
04
00
04
00
3C
00
3E
3D
00
02
3E
3F
3E
04
01
3F
3F
3F
00
01
3E
3E
3D
04
3E
04
00
3F
3F
00
00
01
3E
04
01
00
3D
01
00
00
3C
02
00
03
3E
03
04
01
04
3C
03
3F
01
03
00
00
02
05
3D
05
00
02
3F
3B
3C
3C
38
3F
02
3B
04
3F
3C
01
3C
05
0E
0C
3D
3F
3C
01
0B
0F
00
3C
04
00
03
06
02
00
01
06
3E
3B
06
02
02
3C
39
01
3A
3B
02
06
03
01
04
3D
3C
3F
05
05
04
3E
3D
07
0C
01
3E
3D
3F
07
04
07
3C
3D
03
00
39
3D
05
05
01
3F
00
3C
03
3B
3B
00
00
01
02
3A
37
05
07
0D
3F
3A
02
04
05
3F
00
03
00
08
00
00
3F
03
06
05
3F
3E
08
37
3D
38
3D
3B
00
38
01
3C
3D
3F
3D
02
3E
03
0B
0D
05
36
00
3E
0F
08
08
3D
04
04
00
04
00
01
01
0A
01
38
04
01
03
3D
00
01
00
02
3C
02
3F
00
3F
3C
02
00
00
04
04
3E
3F
3F
3D
3C
3E
3D
00
00
03
00
02
3B
00
00
01
03
03
01
02
03
04
02
3D
03
01
03
01
01
00
03
04
05
3C
02
04
3E
3C
02
00
04
02
04
3C
3F
3B
00
03
3D
03
3C
03
3C
3C
3E
07
3B
01
39
3E
3A
3B
3F
05
08
3B
00
36
38
04
0C
00
00
02
02
07
04
06
02
3C
08
00
38
04
3D
3D
02
09
00
3D
00
01
38
00
3B
3B
3A
00
03
00
01
03
00
3D
07
04
06
00
39
3A
07
09
0B
3F
38
06
07
04
03
3F
01
01
04
38
00
00
3D
3D
01
3F
3D
02
3E
3D
02
3E
3D
3F
3E
00
3E
00
00
03
03
3E
02
3C
3C
3D
3E
3B
03
04
3C
3C
3F
04
01
00
05
04
02
3E
3F
00
3F
01
03
3D
3B
3C
01
3D
02
01
01
3F
02
03
01
00
02
00
01
01
04
00
02
04
3C
00
3C
3D
03
3C
04
04
3D
36
00
37
06
08
00
01
02
00
00
00
00
01
01
3C
3E
06
01
01
00
04
3D
01
00
00
01
00
39
3C
01
02
07
01
3C
3C
00
02
3C
3F
00
00
01
04
04
3D
00
00
01
3D
02
01
03
3F
00
02
04
3F
02
3F
02
3F
00
3C
01
3D
3E
3E
3F
04
04
03
3E
03
04
00
3D
04
04
01
3B
3D
03
3C
02
03
3F
3B
3C
04
02
02
3E
3E
02
3D
02
00
03
3D
3E
3D
02
3F
3F
3B
04
04
3D
00
00
3E
3A
3D
02
3E
07
3D
3A
03
07
03
02
02
07
00
00
01
02
3F
3E
3F
3D
3C
04
3F
3A
3C
00
06
05
08
01
03
37
02
3E
03
01
00
3F
02
02
01
00
3C
3E
3B
3F
3E
3F
03
01
02
02
04
04
01
04
3C
02
03
3B
3C
00
02
04
3C
04
00
3F
3F
03
02
00
3C
00
3C
3B
01
3F
3B
3C
05
05
3D
3E
03
3F
00
3F
02
3C
3C
02
02
03
3F
3E
3E
3E
3C
02
3E
3B
00
04
01
00
01
3E
05
3A
08
05
01
3E
04
06
04
01
04
3A
04
3E
08
3E
01
02
3F
38
04
0A
3C
00
35
39
00
0A
08
00
3D
3D
3C
00
3A
05
00
3B
01
3F
39
01
0A
3D
04
00
39
00
02
39
02
06
05
04
05
3E
04
04
03
00
38
37
00
02
3E
01
3F
01
3F
04
02
3E
03
3A
3D
02
3D
3C
0B
3F
3E
01
00
3E
0B
3D
3C
02
00
3A
00
3B
00
0B
3B
3B
38
3D
02
02
00
3E
05
3A
07
00
3C
00
3F
3D
0C
0C
00
3B
3E
06
09
02
3D
3A
3F
3E
03
00
04
06
3E
3F
09
08
3D
3E
35
36
00
04
07
04
3D
3B
3F
3F
04
3C
00
3B
3F
3D
3B
01
3E
01
04
00
01
3E
03
05
3F
3C
04
03
02
00
01
01
00
3F
01
04
3F
3C
3D
00
01
00
04
01
02
3C
03
03
01
01
3C
04
00
3B
01
03
03
04
00
03
05
02
02
00
3D
01
3D
00
3B
3B
3E
3B
03
01
3F
04
02
03
00
3D
3D
02
31
3F
07
3F
01
3C
3B
05
0B
03
3D
3B
3F
02
05
00
06
3D
3E
3D
3F
3D
05
38
37
3D
3C
05
00
09
01
01
01
05
3D
06
09
3B
00
3F
35
3C
03
3F
06
01
00
3B
00
00
06
05
03
3F
3D
3F
01
0D
3D
00
3C
3A
01
0B
04
38
3C
33
01
3D
3D
00
00
3D
02
04
3E
05
01
00
3F
04
03
3C
01
3D
3E
3E
00
3F
3F
03
00
3D
3E
3C
3E
03
01
3F
02
00
04
3E
3C
3F
00
05
01
3F
03
05
3E
00
05
05
00
02
02
00
3F
01
00
04
01
3E
05
00
3E
03
02
03
01
3D
05
00
03
05
02
04
08
0B
14
06
36
08
3B
3D
00
0B
07
0C
03
3A
3F
04
3C
00
3E
00
3E
37
00
07
3D
00
3B
39
3C
06
3C
3F
05
02
07
3E
02
00
02
3C
3D
01
04
3D
3D
01
00
3C
3C
3C
3F
00
3F
3F
3C
03
04
00
01
04
3D
00
3F
3E
00
3F
3B
04
3C
03
00
01
05
03
05
01
3E
00
3E
3D
00
3E
00
00
3E
00
3D
3F
3E
04
3E
3D
00
02
01
04
00
01
3D
00
02
3F
00
00
3D
3E
3B
3F
02
00
00
06
09
0B
05
01
00
05
3E
04
3A
01
3B
35
39
06
3B
36
3D
3D
00
06
02
02
09
02
0A
3F
3E
39
3E
04
00
0E
3E
02
3E
01
3D
00
05
3E
3D
02
3D
00
3C
3D
3C
01
00
3D
3C
01
03
3E
01
04
04
03
02
02
3B
3C
3D
04
05
04
3F
3B
3D
03
01
05
02
3E
3C
3F
02
00
3E
00
3D
01
3D
00
01
3D
3F
3D
00
02
3E
02
3D
03
02
3F
03
03
3F
01
05
04
00
03
06
08
08
00
0A
0B
00
39
3F
00
05
02
3B
3F
38
3B
05
0F
37
3D
37
3C
03
14
3B
38
3A
3F
0D
0C
3C
3A
02
01
07
0B
02
04
0C
38
02
0A
00
3F
04
07
00
03
04
3E
02
3E
3F
06
01
35
35
00
3E
0F
3D
32
3D
03
03
08
3F
32
04
08
04
04
06
3F
00
05
06
0A
07
3B
03
06
37
08
03
3D
3E
38
01
09
00
33
00
00
07
07
3F
36
00
0A
05
04
3C
3B
02
01
39
0C
00
07
07
06
0F
10
3C
3E
08
00
09
02
02
05
33
37
3D
08
3A
3D
37
39
3C
0E
37
38
03
02
05
04
02
3C
3E
08
04
0D
3F
3F
3B
04
03
3E
02
03
00
3D
00
3F
04
3E
3C
3B
3E
3E
3E
3F
3C
3E
00
02
04
00
00
3E
02
03
3D
3E
3E
3F
3E
02
3E
3C
00
00
02
3D
00
04
04
04
00
3F
04
04
03
01
00
3E
03
00
3C
01
02
02
00
01
01
3F
3C
05
02
01
3D
01
00
03
3C
3F
00
00
11
06
02
06
03
00
02
3C
39
00
39
36
3C
00
3A
3E
3A
00
01
01
3E
3D
3D
0B
08
0C
03
3C
38
3B
08
3F
3F
0A
0C
02
39
0B
03
3E
00
05
02
0A
07
34
3F
3D
05
0F
3D
39
38
3A
00
0E
3D
36
38
00
07
0B
3A
36
00
00
00
0E
01
04
00
02
02
03
00
03
00
3F
02
01
3D
3F
3C
05
01
04
3C
05
04
04
3D
04
3C
3D
3F
05
3F
02
00
02
03
04
03
04
04
01
03
04
01
3E
03
00
03
3F
3B
3D
00
3D
3F
04
02
3E
00
3C
00
00
3D
03
3E
01
3D
00
3C
00
02
04
00
00
00
3D
01
3A
36
00
08
00
01
06
3F
39
3D
3B
00
0A
3F
3C
02
3F
00
05
08
07
07
00
04
05
05
00
02
3A
02
04
39
3C
3A
0A
04
03
3D
00
3E
02
02
3E
3D
3D
02
01
03
00
04
04
3C
00
00
03
3C
02
00
03
3C
04
03
00
3F
02
3F
3F
3D
04
03
00
00
3D
04
02
01
02
3C
3F
03
3F
04
3D
04
05
3C
04
01
02
3F
03
01
3D
04
00
3F
01
00
3C
05
00
01
00
3C
3C
3F
3F
04
03
05
01
3E
39
00
00
3C
01
04
3D
05
05
09
08
08
3F
00
01
00
07
04
04
05
00
3F
3C
00
05
01
08
05
04
3F
33
3F
01
3D
3E
01
05
04
04
3F
3D
01
3D
05
01
3C
00
3D
01
3E
00
03
3D
03
03
00
04
3D
3C
3F
04
3D
01
3D
00
04
03
02
3E
02
04
3C
01
3E
02
00
00
3D
3D
00
01
00
04
00
3D
02
3D
04
00
00
02
02
3D
3E
3F
00
02
3E
01
00
3D
03
00
3C
00
3B
00
3A
3F
00
09
06
3E
3A
01
3E
06
0F
10
07
3D
06
05
14
0A
00
35
08
00
05
05
3A
3B
01
03
00
3B
03
3A
3F
3C
3F
04
05
37
05
04
3B
04
08
3B
00
05
00
04
01
38
3D
0A
10
07
3B
3B
00
09
0A
05
3D
3C
00
02
3A
3B
00
00
3D
00
02
3E
3D
32
00
06
00
3E
08
3D
3E
0B
0B
0D
05
3E
02
07
02
02
3A
00
09
06
3E
3C
3D
3F
05
00
06
3D
05
34
04
39
00
00
36
39
07
07
00
07
3E
09
01
00
0C
0D
01
3A
01
00
15
0E
01
37
04
09
3E
00
39
3C
05
0C
05
39
03
3A
3C
02
05
3E
3E
3F
3E
02
3F
00
00
02
3F
3E
00
01
01
3D
00
04
3E
00
3F
04
3B
00
01
00
03
03
3C
3E
3E
3E
3B
03
3C
00
3C
01
04
3E
3E
00
3E
3F
01
3E
3F
3C
03
00
00
00
05
04
04
3E
05
04
3C
3C
3C
3F
3B
3D
3D
05
3E
00
04
01
08
00
02
3C
3C
3D
01
3B
03
05
3B
0A
00
01
04
0B
02
3A
01
04
09
3F
07
02
06
07
00
35
01
3C
3A
06
05
00
3F
05
3E
3A
3F
07
03
38
00
03
00
07
03
3C
3C
0B
05
0B
3E
37
02
0F
0B
0F
01
36
07
08
09
01
3B
3D
06
08
3B
00
00
3D
01
00
03
3C
04
01
3C
00
3C
3E
00
00
3C
04
00
02
3F
02
3F
03
00
3E
00
3D
04
3D
3E
03
00
02
00
04
3F
00
03
01
01
02
3B
04
03
3F
3F
3D
00
02
3E
3F
02
3C
00
04
00
03
00
04
3E
3B
3E
3F
3F
3F
00
01
3B
00
00
02
05
3D
3E
3B
3D
3E
3C
02
3E
3B
01
01
00
01
00
02
3D
3E
3C
3D
05
01
00
3C
04
3D
3F
00
3E
00
3E
05
3D
04
02
3E
03
00
3F
04
04
3D
3D
03
04
01
00
3D
01
00
04
04
05
3E
04
3E
02
00
04
3E
03
01
00
3D
04
03
00
04
00
3E
3F
04
04
00
05
04
3C
3D
04
03
05
00
00
3D
3E
00
3C
02
00
04
03
3D
00
04
00
3C
00
3D
3C
03
00
03
04
04
00
04
03
01
05
00
03
00
04
00
04
02
04
3D
3B
3B
02
3E
3E
00
3C
00
3E
05
3E
3D
00
00
04
01
3E
00
3E
00
04
3C
00
02
3B
3E
00
3C
3E
00
05
00
02
00
3D
3E
04
04
02
04
3C
02
00
00
01
04
00
04
3F
3E
03
04
03
00
00
00
00
00
01
03
01
04
00
01
00
3D
3C
00
3C
3C
02
02
04
03
04
3D
01
01
3F
3C
00
3F
00
00
01
00
3D
03
3E
3C
02
00
3F
01
3C
01
02
3E
04
01
00
03
01
00
04
05
3E
3E
3D
03
03
00
02
3E
02
00
00
00
04
00
3C
00
3F
09
3D
01
01
3B
00
01
00
3C
02
03
00
04
02
3C
3B
3E
02
3C
04
3B
01
01
3D
05
00
3B
01
00
3C
3E
3F
3E
02
3F
00
02
3F
3C
04
3D
3C
01
3D
3C
04
3B
3E
05
00
00
3C
3F
01
3D
3E
3D
03
03
04
3D
00
3C
04
00
3C
00
3D
00
3E
3C
02
3E
3D
02
00
00
3F
03
03
00
3C
3C
00
00
04
3C
01
3F
3B
00
05
00
3F
3B
3F
00
05
00
01
04
04
3F
00
3F
3B
3D
04
08
07
00
04
3E
04
05
05
3B
00
3F
00
3E
3D
04
3C
01
00
00
04
3D
3D
3E
00
3C
3C
3F
03
04
3C
00
3C
02
00
3E
3F
3F
3D
04
3C
02
3D
02
3F
3B
02
3B
00
00
04
3B
3C
3C
03
3D
3D
01
3E
00
3F
00
3E
3C
03
3D
02
3D
3F
3F
03
04
05
3E
3D
01
3F
04
3C
3C
01
3E
3C
04
3F
04
3D
3D
00
01
01
06
04
00
3C
3F
3D
00
02
00
3D
3F
3D
3D
05
00
00
3E
3F
3E
3E
01
01
04
00
3B
05
3C
3F
3B
00
00
00
01
00
3F
3D
03
04
3E
03
3C
05
01
05
3B
3B
3C
3D
3E
00
00
00
3F
04
04
3F
3B
03
03
3D
00
00
3C
3F
04
3F
00
06
3D
00
00
02
3C
00
03
03
02
3C
3D
3B
04
00
00
03
3F
01
03
3E
00
3D
02
03
3C
3E
3C
05
3B
01
3F
3F
3C
02
3E
3C
3E
03
3E
3C
04
3D
3E
02
01
3C
00
04
3F
04
01
04
04
00
02
3E
3C
03
3C
01
02
00
04
01
3C
3F
3C
3E
3F
3F
05
03
3D
3F
07
0B
06
3C
08
00
02
06
08
03
06
3E
3B
03
03
3F
08
04
00
37
37
3D
02
3B
3F
35
00
3A
3F
3D
04
09
02
01
3E
00
3E
00
3C
00
01
3C
04
05
00
3C
3B
00
3D
00
01
3B
3C
01
3D
00
03
3C
3E
00
00
3E
3D
00
00
3B
3D
05
3F
00
3C
00
01
3C
00
02
3D
03
3D
3F
3D
01
00
00
3C
04
3F
3F
00
00
00
04
03
04
00
3E
00
05
03
3E
3D
03
04
04
3F
03
04
06
05
00
0A
06
07
05
01
3D
02
01
0A
00
00
37
36
02
0B
03
3E
3E
3F
3D
03
3D
3F
02
3F
03
3F
01
00
03
02
01
0B
04
00
04
3D
3C
03
3C
3E
05
3E
01
04
3F
3D
3D
01
04
03
3D
3C
3E
3E
01
3E
01
3D
04
3C
00
02
04
3B
3C
04
00
02
03
04
3C
3F
3D
3D
03
03
01
3E
3E
00
01
03
02
02
02
01
00
01
3F
01
3D
3C
3F
3D
00
05
03
00
3F
3E
00
3F
00
3C
07
05
06
07
05
04
02
3D
00
02
00
07
0B
02
36
37
3F
08
3F
3D
39
34
3C
0C
3D
3D
3F
01
05
00
00
01
07
03
00
03
02
07
01
3E
04
02
3A
3F
00
00
3B
3D
07
00
38
01
00
0B
07
39
37
3F
02
06
3D
3B
37
39
00
00
03
3D
02
3D
3C
38
00
04
06
06
05
0B
08
03
00
3F
00
04
04
3C
38
35
00
06
3D
39
37
3C
06
06
3E
3E
3F
00
3E
39
00
3E
02
06
3B
0A
01
07
0C
05
0B
0C
00
01
06
3C
04
02
05
01
3A
32
3D
0A
00
3F
35
3A
3F
06
04
3C
03
3A
04
3F
06
01
00
09
3E
04
3C
04
3E
3F
05
3C
3C
02
00
3D
3C
3C
3F
04
3D
3C
3F
03
3D
02
00
01
3D
02
02
3F
03
00
3D
3C
3F
3C
3F
02
00
05
3C
3E
03
04
3E
3C
3C
02
05
3C
3F
3F
02
02
3C
3C
3D
04
3B
3C
00
3C
00
02
3F
3E
03
3D
3F
3C
3C
3E
05
04
02
3D
39
3D
03
04
0B
0A
09
01
04
3A
05
03
00
07
3B
3A
3C
00
03
00
37
3A
3B
3C
00
00
04
01
04
00
01
3D
3F
3D
02
03
05
07
09
03
01
0E
03
04
00
04
01
07
02
00
38
39
06
07
3E
3E
3A
3E
02
09
39
3B
3F
3F
00
3E
00
3B
08
00
3A
02
3F
3C
03
03
3B
03
3F
00
3D
03
01
3E
3F
3D
3C
3D
04
3D
3E
00
00
04
3D
05
3C
3D
05
02
3E
3D
3E
3D
3E
05
3D
3C
03
3E
04
3C
02
3D
3B
3E
00
01
3E
01
3D
3E
02
03
04
3B
3D
03
3D
3C
3D
01
3C
3D
00
00
00
00
03
3D
00
3F
00
3C
02
00
02
3F
3E
01
04
04
01
3E
3C
03
02
05
3C
3E
3C
01
00
04
3E
00
3B
3F
3C
01
05
00
00
00
00
3F
01
01
04
03
02
3C
3D
3D
3F
00
04
3C
01
00
00
01
02
00
00
00
3D
03
03
3D
00
3C
3D
03
04
04
00
00
02
00
01
04
03
3D
3C
3D
3C
3E
3D
3D
00
04
00
3C
05
3E
3B
03
3F
3C
3F
3D
00
01
02
04
3C
02
00
00
3F
3B
04
04
3D
3F
02
00
00
02
3E
3D
3C
01
01
3F
3D
3F
3C
3E
04
3B
04
02
01
04
00
00
3F
04
00
3D
3C
00
00
01
02
00
3F
04
02
04
02
02
03
3C
3D
3E
01
3D
00
01
03
03
01
3F
02
3E
03
3D
04
04
04
04
00
04
3D
3B
3D
3B
01
3F
00
3E
3F
3B
3C
05
3B
3E
3E
3C
3D
00
00
04
03
02
3E
3B
00
3C
3B
00
3E
05
3F
04
03
01
3F
04
3E
00
00
3C
03
01
00
3E
3E
05
3E
00
04
05
03
02
01
00
02
3C
3D
3E
3C
3F
02
00
00
03
3D
3F
00
02
00
3C
03
3F
04
3E
02
3E
00
03
00
00
3E
01
3E
3F
00
02
00
3D
3E
00
3B
3E
3F
3F
3F
00
01
3D
3D
04
01
3E
00
3D
00
3C
3C
05
3D
3D
01
3F
01
04
00
3C
00
00
03
3E
3C
00
3E
3E
03
00
04
3D
01
3F
3C
3D
00
02
02
3C
01
02
3E
3F
3D
3B
04
3C
01
3E
3B
02
00
00
3D
3F
01
00
3B
3C
3C
02
00
3E
00
3F
01
3B
3F
04
00
05
04
00
03
3E
03
00
3B
02
00
3C
02
3C
3C
00
00
03
3D
3D
00
03
04
3F
3F
3F
04
00
00
01
3B
3F
3C
01
03
00
3F
03
00
3C
3C
02
04
04
01
3D
3D
00
03
3F
01
03
02
3F
3F
3D
00
3C
03
01
02
04
3F
00
3F
02
02
03
00
02
3E
3D
3C
02
3C
3E
00
00
04
04
3E
00
3C
3D
3F
3F
03
3F
01
3C
3F
00
3F
04
00
04
02
02
3C
02
3D
05
03
3E
01
01
3B
00
00
01
03
3E
3C
3D
00
3F
3D
3F
02
3D
03
02
3F
3F
01
03
00
3D
04
3F
01
05
00
04
3F
3D
02
05
05
04
00
3A
03
04
3C
00
00
3F
01
3D
3E
3C
3F
3E
3D
02
3F
3D
3E
01
3E
03
01
3D
3C
3E
3C
02
3B
02
3D
00
01
02
01
03
03
04
3F
3D
00
3F
00
3E
3C
3F
05
04
3E
03
00
00
3B
04
3C
01
3C
04
3C
02
3B
00
03
04
00
04
03
03
03
3F
00
3D
00
02
00
3B
3E
01
3B
04
3E
00
3F
3E
3B
00
00
04
00
3F
01
05
3D
3F
3F
03
00
3F
3E
3F
3B
3B
01
00
3B
00
3E
02
06
3F
3A
00
01
3C
3D
01
01
3D
3E
00
06
06
06
02
3C
36
3C
01
05
09
00
35
3E
03
04
01
01
3F
03
3A
3A
3D
3D
00
01
3F
3B
04
3D
3B
00
3C
04
00
3E
01
3E
00
03
04
3C
03
3B
02
3D
00
3D
04
02
00
05
3C
3E
03
02
02
3F
3E
05
00
3B
03
00
3B
3E
3C
3F
00
3F
03
3E
05
3C
3C
00
04
3F
3D
03
03
3F
3C
01
00
03
3C
3F
05
03
3F
3F
04
02
3D
02
00
02
3E
3B
00
00
39
03
00
05
02
00
3A
3A
09
0A
04
00
3B
3E
00
07
3F
00
02
03
00
3D
00
01
02
00
03
06
3E
01
37
3F
04
3F
3E
3E
02
3C
3D
3B
05
3E
3D
04
04
03
3B
03
03
3D
00
04
00
01
3F
3C
01
04
03
00
02
01
00
03
05
3F
00
00
02
02
3D
3F
00
05
00
3B
02
3D
04
02
00
00
01
02
03
3F
3C
3F
3E
3B
3E
3D
3B
3F
00
03
03
3F
01
01
00
02
01
3F
38
3A
37
3A
02
3E
3A
03
04
00
00
3F
01
0C
0E
00
33
3C
07
0A
0C
06
3E
02
3F
01
00
3E
3E
3F
03
00
3C
0C
3C
07
39
3B
3B
38
01
3F
3F
00
04
03
04
3D
03
02
08
3F
38
3C
0F
08
02
3E
37
05
00
02
03
3B
3F
03
00
39
3C
01
3E
01
00
39
3F
3E
3C
3F
00
01
06
3B
39
3D
0A
13
0D
02
35
37
06
05
00
3A
00
04
07
3F
39
01
07
3F
03
03
05
05
36
3C
00
3B
3C
00
3C
00
3A
05
01
00
02
37
03
0A
13
07
36
36
01
09
09
05
38
00
05
06
3F
00
3F
02
3E
3F
00
05
3C
01
00
3C
3B
3F
3F
3D
3D
01
04
04
02
02
00
00
04
03
3F
03
03
01
3F
00
00
00
00
01
00
00
03
3C
04
3E
01
3F
3C
04
00
3D
00
3F
01
02
02
03
3E
3C
3F
00
3C
00
00
3B
3E
02
3C
3F
00
3C
00
00
02
03
03
02
00
04
00
3C
04
03
00
07
00
02
3C
3F
3B
39
03
03
08
3D
02
33
39
08
0E
07
38
38
02
07
03
01
3E
00
08
3E
3F
3E
01
38
3C
03
3C
3E
01
3B
3E
00
00
38
3A
3E
3D
02
05
04
3F
37
09
0F
0E
36
33
39
0C
10
0B
01
3A
01
03
01
03
01
06
3A
00
3C
3F
0C
01
00
3B
00
3F
04
00
00
3F
03
3D
02
00
3E
04
00
00
00
3E
3E
03
04
3E
01
3D
3E
3B
03
3D
00
02
3D
3D
03
00
3D
00
01
3E
3E
3E
00
00
3D
03
02
04
3B
01
04
3C
04
3D
03
3F
01
3D
00
3F
04
3D
02
3D
00
3D
03
00
02
01
00
01
3E
3E
3F
3D
03
3C
01
01
3F
00
01
3F
3C
03
3F
3D
3D
03
3B
00
05
3D
03
03
02
03
3E
02
3D
05
00
00
03
3E
3C
3D
01
02
01
3E
01
3B
00
00
3E
3C
3E
3F
00
00
02
3D
01
3B
02
3D
01
00
00
04
02
3C
03
00
02
00
05
02
00
3C
02
3C
02
00
02
01
3C
3E
3F
3B
03
3E
3E
3F
02
00
02
02
00
04
02
03
05
02
04
02
3E
00
3E
04
01
3D
04
03
00
3D
3E
3C
3D
05
00
04
02
05
01
3D
04
3C
01
01
03
3D
02
00
3C
00
00
04
3B
01
05
3D
04
3F
04
00
04
3C
01
3D
01
3C
3E
00
3C
03
3E
3F
00
02
3E
01
3E
00
3C
3F
3C
3C
04
3C
02
3E
04
3E
3E
02
3D
3D
3C
03
04
3E
03
3C
03
3B
05
3E
3E
01
3C
03
00
02
03
02
3F
01
3B
3D
3B
00
3E
3D
3F
3D
02
3F
04
03
3F
00
3B
02
00
03
3C
00
3E
3D
00
02
02
3E
3C
01
3D
00
05
3D
3E
01
3F
00
02
00
03
3D
3C
3B
01
3C
03
02
01
3F
3C
00
3C
3B
3D
3C
3B
00
3B
05
3E
3E
00
04
02
03
3E
3F
00
04
02
03
04
3B
3E
02
01
3C
02
00
02
01
3E
02
01
05
05
3E
00
3D
02
3C
02
3D
05
03
3B
3F
00
3F
3D
3E
3C
3F
05
3E
02
00
01
02
00
00
3F
04
01
01
00
3D
3C
02
01
03
04
00
03
3F
3C
00
3E
04
05
3E
00
00
3B
02
01
00
3E
03
3D
03
01
3C
00
3E
3D
00
03
01
3F
00
00
00
00
3E
03
3F
01
02
03
00
02
00
00
04
3D
3E
3D
00
02
3B
3E
3C
3F
3F
00
00
3D
04
3E
00
3F
00
04
3E
00
03
03
3E
02
04
01
03
00
04
00
00
3F
3D
3F
3D
3B
3F
3D
00
00
02
00
03
3E
00
03
03
3E
03
3E
02
3C
3F
04
00
3E
02
05
3E
3E
03
02
04
03
3B
03
00
00
03
3D
3F
02
3E
02
01
00
02
3C
04
00
00
3E
00
00
3F
3D
3F
02
00
01
00
3D
3C
01
04
04
3D
3F
3F
05
3D
3E
03
3B
04
3F
3F
00
3D
3D
04
3E
00
01
04
05
02
00
04
3C
3C
01
02
04
01
3D
3F
3F
04
3F
00
01
05
00
03
02
00
3F
3C
00
3C
00
3E
3F
3D
01
01
3E
3B
3F
04
03
3C
00
00
3D
00
03
05
00
3C
00
00
01
00
03
3F
3C
3D
3F
3E
3B
01
04
00
00
00
3C
3D
01
3C
04
04
3D
00
04
04
04
04
02
00
04
03
3C
01
04
3F
00
3F
02
04
00
3E
04
02
3E
03
01
02
03
3F
02
3A
03
05
04
3E
3D
3B
00
02
3C
02
3F
3F
3F
01
35
00
09
3C
01
05
08
3B
39
3D
05
08
04
39
3C
03
3D
3C
0F
08
07
3F
3D
03
0A
05
08
3D
03
03
3C
3B
3F
0B
00
03
00
03
3B
3E
03
02
03
3E
03
3F
04
02
03
3E
3F
04
05
02
00
3F
3F
3C
00
02
3F
00
00
3C
00
3D
00
00
04
01
3C
3C
03
3E
3E
00
00
3F
00
01
03
02
3E
02
00
02
00
05
05
00
00
3D
00
01
00
3D
3F
3C
00
04
3E
00
00
04
3D
02
3F
03
3F
39
3F
39
3D
07
05
04
06
3F
00
02
09
08
03
3E
03
09
00
01
01
00
00
04
3E
00
02
01
04
04
07
01
3F
37
00
00
02
3F
3E
3B
01
00
3F
00
02
04
00
01
01
05
3E
00
3C
04
00
00
01
3F
00
3D
00
3C
3B
3E
00
00
3D
04
04
3B
3F
3C
04
00
02
3D
3F
01
01
00
04
3F
3D
03
3E
3F
02
01
02
3C
3D
03
04
01
04
00
04
3D
3C
02
3E
00
02
05
3D
3E
02
00
00
00
02
38
00
09
02
05
3B
3D
00
06
0B
09
3E
35
01
07
15
10
00
35
08
0B
00
01
36
3A
04
06
3D
37
04
3E
00
3C
3B
0A
02
3A
09
03
3B
3E
09
39
3A
0A
01
01
00
35
05
10
10
0A
00
38
04
08
09
05
3F
3B
05
05
3D
3F
04
01
3D
02
03
01
03
37
3C
04
02
02
07
00
01
02
0A
0C
08
35
3F
0B
04
07
3B
01
08
05
38
3F
37
3F
00
09
03
00
07
38
02
01
3A
3D
3E
3B
02
09
3D
06
37
00
00
03
10
10
06
37
03
07
13
14
03
36
01
07
3D
03
00
3A
00
0A
00
39
00
3D
3B
3B
02
01
3F
3D
04
04
3E
03
03
00
00
3E
05
03
03
04
00
00
04
04
01
00
00
00
03
03
00
3D
00
00
05
3C
02
03
02
01
3F
3C
02
3C
3B
3D
02
04
00
3E
3C
3F
3C
3F
3E
3D
3B
00
3D
00
00
3E
00
3F
3F
04
05
3C
3D
01
3E
02
02
03
07
00
01
3D
3D
37
3E
3B
00
07
3A
3F
02
3E
03
09
0A
3D
3C
04
07
06
02
00
02
07
3B
3C
3D
3F
38
08
06
3F
00
3C
04
3C
3B
00
03
3B
08
0A
00
05
02
3A
3F
06
05
0A
3C
3B
00
09
0B
0F
3C
38
04
0B
05
01
38
00
06
0A
3A
39
03
39
3F
03
00
03
3C
01
3C
3F
02
3D
02
03
01
00
00
00
3F
3C
00
02
3E
01
3F
3F
3C
3C
3E
3F
3D
05
3C
02
03
00
04
3E
05
01
00
3C
00
3C
02
3E
3D
00
3D
00
00
01
04
04
03
3E
3F
04
3E
00
02
05
01
01
05
03
3E
01
00
02
3E
00
01
04
03
3D
01
3E
00
01
00
3E
04
00
03
02
04
3F
02
3F
02
3E
3F
03
3D
3E
3C
02
04
01
02
01
01
00
00
03
3E
3D
3F
3B
01
00
00
02
3D
00
02
01
01
3F
3F
3F
3C
02
3C
04
00
01
04
00
04
01
3E
3F
3F
04
3E
3E
00
3F
3D
00
03
3F
3F
3D
01
01
02
04
3E
03
3D
3F
3C
3F
3D
3C
3D
3E
3C
03
04
00
00
3D
04
00
00
3F
04
03
05
04
3C
3C
3D
3C
3F
3F
3F
01
3E
02
01
03
03
3E
3F
00
3A
3D
3D
02
3C
3E
3D
00
3D
3B
04
3F
00
00
00
01
01
3F
3E
3F
3C
3D
02
00
3D
3E
00
03
03
3D
02
3D
05
00
00
04
00
3C
03
00
3C
00
03
03
3C
3E
05
04
00
3F
05
00
03
3B
3D
00
00
00
3E
01
3C
00
3C
3F
02
3F
3C
3C
01
3F
01
02
3F
3C
02
04
3D
3D
3E
00
01
01
04
3D
03
05
3E
3D
04
05
01
3E
3F
3B
00
3E
04
00
01
03
03
03
01
3F
38
3E
01
04
00
01
01
3C
04
03
01
3D
3D
3D
3C
03
07
3D
3E
3F
3D
04
02
3D
04
00
3B
05
01
00
09
3E
00
00
00
03
00
01
3F
02
03
3C
01
01
06
3E
3C
3F
3B
3F
01
3F
05
02
03
3C
02
04
03
3C
02
01
00
05
00
3D
3D
3D
3F
03
02
00
00
01
00
01
3E
01
02
3B
3B
3D
01
3E
00
3F
00
3D
00
3F
3F
3B
3B
00
01
02
3E
00
04
00
03
04
00
3C
02
02
3F
3B
3D
00
03
3D
01
00
00
3C
3F
3C
04
3D
3C
03
3A
03
07
01
3C
3D
3A
02
05
3D
00
3C
3B
3F
02
06
09
3B
00
03
00
3F
01
05
3E
00
00
3E
3D
00
04
00
3C
03
00
3F
04
3C
3D
3E
00
02
3C
00
01
00
3C
04
00
00
03
04
01
3F
00
3F
02
03
03
04
03
02
3B
00
3F
3E
00
01
3C
00
02
01
01
03
01
3F
03
01
03
3F
3B
3F
3F
03
02
00
3E
00
00
04
00
01
00
01
3C
3F
00
02
02
02
3F
03
3C
00
02
02
01
00
3E
3F
01
3C
01
05
3D
01
04
3F
01
00
02
00
05
3D
01
00
00
01
06
3D
3F
03
05
01
02
3B
3E
3E
04
04
00
3F
02
02
3B
04
00
3C
02
00
3E
05
3F
3A
3C
3E
3F
00
3D
00
00
3A
3B
03
3C
03
00
04
3C
02
02
00
00
3D
04
02
03
00
3D
03
3C
02
00
01
3F
3E
3D
3F
00
01
03
3D
01
00
3D
00
00
3E
3D
3F
05
3F
3F
00
3D
06
04
3D
00
01
3F
07
03
00
3C
3D
02
05
3E
02
3F
3C
01
01
3F
01
03
01
01
00
05
04
00
04
38
02
38
0A
0F
02
04
05
01
3E
3A
38
37
05
00
3B
05
06
08
39
37
3F
01
01
0E
3F
3A
00
00
3E
05
00
3F
39
33
3A
03
01
3F
3C
3F
03
03
04
03
3E
03
00
03
03
01
04
02
3E
01
02
01
05
03
3E
02
3D
00
00
00
3D
3B
01
01
05
3E
3C
3D
00
00
3C
04
01
04
02
04
00
00
01
00
02
03
00
00
00
3C
03
3E
00
3F
3C
3B
03
04
3C
3F
3F
3C
3C
00
01
02
04
02
02
08
00
37
3C
01
04
3D
3F
0C
07
0B
39
3E
3D
08
02
06
01
3F
00
3D
3E
04
07
02
3A
3F
00
07
02
00
3E
03
3B
01
00
01
04
02
3F
01
3C
3D
02
3C
02
04
02
00
03
00
04
03
04
3B
02
01
01
01
3C
3E
3F
00
02
03
00
3D
01
00
3C
3E
00
00
3F
02
3D
02
3E
3E
00
04
04
3E
3D
3E
3F
3E
3E
04
04
3D
3D
3F
04
03
3B
04
04
04
00
3D
3E
02
03
03
3E
04
08
06
01
00
02
02
09
00
3F
3F
3F
0F
00
3F
3A
3B
3F
0D
07
38
3A
02
3D
04
08
00
3E
31
33
07
04
02
02
3C
3F
01
03
3F
09
0B
38
07
3E
00
3E
3B
00
3F
04
37
3F
04
3F
07
38
00
3C
07
3A
00
03
37
3D
00
37
00
0A
06
3C
3A
3D
05
04
04
00
04
3A
3C
07
00
3F
06
05
05
00
33
3E
0A
00
06
3F
3C
3A
05
01
01
00
3D
00
37
36
0A
08
06
02
3E
3D
04
05
07
07
3C
01
04
09
3A
3B
3E
04
0F
05
3E
39
3A
02
15
02
3D
3E
38
03
0D
01
3D
39
35
3A
03
08
08
05
36
36
3E
04
3C
04
03
3E
00
3E
04
00
00
3F
04
00
03
01
00
03
00
00
3E
3D
3E
3B
04
03
3E
03
3C
3C
04
00
00
3F
04
01
00
04
00
3B
02
02
3D
00
00
00
00
03
00
3C
05
02
3C
04
3D
3F
3F
3F
00
00
01
00
3C
00
00
3F
3C
3C
03
3E
02
03
06
00
3D
07
3C
05
0E
34
00
36
00
08
0E
03
3C
3B
00
00
05
01
02
38
00
03
07
3B
3E
3F
3B
00
03
06
02
05
3A
3F
01
00
00
0C
0D
01
3B
05
3E
3C
00
3C
09
3F
3B
3D
0A
03
10
3C
3C
37
00
02
08
0A
3A
3C
00
3C
01
0A
00
04
39
34
3E
3D
3F
01
3F
03
3E
3E
3D
3E
03
05
3C
01
03
3E
3C
01
3C
01
04
00
03
03
02
3F
3E
3C
3D
02
02
3D
00
00
02
3E
00
00
00
3F
02
3D
3F
3B
02
3E
02
00
3D
03
3D
03
04
3B
01
3B
02
3D
3F
3E
01
00
3C
3C
00
3D
00
03
02
00
05
01
06
3F
04
38
34
3C
3E
00
01
03
02
03
01
02
07
07
3B
39
39
03
01
08
3C
01
3C
01
3F
09
05
3E
39
3F
3F
3E
06
00
04
04
02
02
3D
00
02
01
04
01
3C
3D
03
03
01
00
03
3B
3B
3E
3E
00
02
3F
00
3C
3E
04
04
3F
02
04
03
00
3D
3F
02
3E
02
3D
02
03
00
05
03
00
3F
00
3E
00
3C
01
00
3C
3F
01
3D
02
3D
00
00
3D
00
3E
00
00
00
00
04
04
3E
00
02
02
3F
00
07
02
02
3C
05
07
37
39
3B
06
00
01
3B
3C
04
3B
00
07
3E
00
3C
3D
00
03
06
02
3D
3C
02
3E
03
3D
3E
3C
00
02
3D
01
3F
01
3D
3D
00
02
3B
3D
3C
00
3D
3E
3E
3D
3D
3E
3F
04
00
04
00
02
01
00
05
3D
3F
00
00
3E
03
3C
04
01
00
04
3F
3B
3D
04
3E
01
3F
03
3E
04
04
00
3D
00
3E
3D
3F
00
01
00
01
00
3B
00
01
04
3C
3E
3D
3F
3D
05
3F
3D
3C
05
06
3F
09
08
3D
03
3D
00
07
06
06
3E
3F
04
08
03
3E
08
38
37
02
3D
08
0D
3D
3C
3A
00
05
07
3F
00
3F
00
37
0D
00
3E
00
09
3F
07
02
3D
08
03
38
04
36
02
09
02
00
07
3F
3B
04
06
01
0C
3F
3A
01
02
04
06
04
3E
3C
3B
3B
03
0A
3A
03
02
3D
3F
3D
07
0B
07
3A
3E
00
00
02
00
3C
07
00
01
00
04
05
07
3C
02
00
05
00
03
3E
03
03
3F
00
00
3D
3B
03
0A
07
04
3E
3E
05
0D
06
3D
33
05
02
3F
03
04
39
3F
3E
02
03
07
3F
01
3C
39
02
00
04
01
3D
00
02
00
00
3D
00
3C
3F
01
01
3C
00
03
05
00
02
00
3D
00
3D
00
3C
3E
3F
00
3C
3F
3B
3C
3C
3D
00
03
00
3B
04
3D
3E
01
3F
00
3F
00
3B
00
00
03
00
03
00
02
3F
00
00
3C
05
03
02
3C
05
05
00
00
04
3C
05
3F
3E
00
00
02
06
3C
07
3D
37
04
00
04
03
3B
39
00
01
04
00
00
38
02
04
01
05
00
38
3D
3D
06
00
07
3C
00
03
00
3E
04
03
03
02
02
31
04
05
05
0A
03
00
01
00
00
0A
0C
39
04
38
03
07
08
02
02
04
3D
03
00
00
07
3D
3F
3C
3E
03
05
00
3C
00
04
3E
03
3F
3E
02
3B
03
03
01
00
3E
3D
04
02
02
3D
03
3D
04
04
3C
3C
3C
3E
01
3C
04
3D
3F
01
3D
00
3C
3C
00
3F
04
3E
03
04
3F
00
01
3E
01
3F
3F
3C
04
3C
00
02
3D
00
05
01
03
3D
02
00
00
3F
3F
03
03
3D
04
05
3E
03
06
3E
02
06
3E
3C
00
06
00
00
00
00
02
01
3D
05
05
3F
3A
3C
02
07
3D
00
3E
3F
3E
00
3B
00
3E
04
00
3F
3E
3E
00
00
00
00
00
3C
05
3E
00
3D
04
3E
02
02
00
01
3D
3C
02
03
3C
3F
3C
3C
00
3F
05
03
3D
04
03
04
3F
00
3E
3E
04
04
3B
02
3F
3C
02
00
3F
05
3D
03
03
3E
02
3E
3E
03
04
3D
05
3B
02
3C
3F
3C
04
3D
3C
3E
03
02
02
03
00
03
3E
3F
01
3E
02
02
02
03
02
02
3F
3B
3B
00
3D
02
3F
00
3B
02
01
04
3D
00
03
03
3B
3C
01
3D
3C
00
02
3E
3F
3B
00
01
3C
01
3F
00
3D
00
02
3E
3F
3D
3E
04
03
3E
05
02
01
3C
3F
04
03
02
3E
3F
02
01
3F
3E
3C
3C
3E
02
3E
01
3D
00
3D
3E
03
01
04
01
00
04
3D
03
00
00
3D
00
3D
03
3D
00
05
00
3C
01
01
3E
3C
3B
3E
00
3C
3C
01
3C
03
05
09
05
04
06
03
07
00
04
3F
06
06
00
00
3D
00
04
08
3F
3C
3C
3D
02
03
01
00
3F
3E
3E
00
00
04
3D
01
00
03
07
05
06
3D
3D
00
3E
00
3F
3B
00
3E
00
3E
3A
3F
03
06
00
3E
3E
01
09
3D
3E
3F
3B
06
3D
3F
02
01
05
3E
00
02
03
3F
02
00
00
04
06
03
03
00
00
06
00
38
00
3E
03
05
03
3A
00
05
02
01
02
01
03
3D
3D
00
02
3D
00
3D
07
02
04
07
08
05
06
00
00
02
3B
03
02
0A
05
39
36
3E
01
06
01
3E
37
00
01
3F
3C
3E
3C
3D
02
01
01
00
06
3A
00
3D
3D
3F
3B
00
3B
00
01
03
3C
3F
00
3C
03
02
02
00
00
03
3E
02
02
3C
3E
3D
3C
04
3F
3F
3C
04
00
04
04
3E
00
02
05
00
3F
05
03
3E
02
3C
01
01
3F
3E
03
00
3C
02
02
3E
04
3C
00
3D
3C
03
04
3C
3D
3E
3C
00
04
01
3E
3F
00
3B
3C
01
03
3E
3F
08
00
00
3C
04
01
09
01
3A
00
3B
07
00
00
3C
39
3B
01
3D
3E
00
02
39
3F
01
00
3D
06
3E
03
05
05
06
08
3E
00
01
00
3D
3C
00
05
02
00
3E
3D
3F
09
05
3A
3F
00
3E
00
00
03
3D
02
00
3F
04
3F
07
01
00
3E
00
02
3D
3E
00
3F
3E
3D
3F
05
3E
01
04
04
00
3F
04
01
3C
3E
3F
00
3E
01
02
3C
3D
02
3B
01
01
3C
00
04
00
00
3C
00
3B
03
3C
3F
01
3F
01
01
00
3E
03
00
01
02
02
01
00
00
00
3D
00
3C
03
02
01
3B
00
00
01
05
03
01
04
00
08
3E
3C
3B
3C
00
06
3F
39
3F
01
3E
3D
03
04
05
00
3C
3F
07
0B
08
05
3F
3C
03
04
01
08
00
03
3B
01
3F
04
05
3F
01
3E
00
3D
3E
3C
04
00
00
03
05
04
03
00
02
02
02
3C
3C
3B
03
04
03
01
00
3E
04
03
00
3B
04
3E
3F
04
3E
03
02
3E
3B
3F
3D
3B
05
3F
3F
03
3F
3F
3C
00
3C
03
3B
01
3B
04
03
00
00
01
04
3C
03
00
3F
05
01
3B
3F
02
3D
3B
3D
3F
3C
00
00
02
04
03
01
3F
3C
00
09
08
0C
03
3A
00
00
08
05
00
06
05
06
3D
3E
3F
02
01
01
04
3F
05
00
3D
05
04
3F
02
3B
00
00
04
04
3D
00
3D
00
3C
01
02
01
02
04
01
02
02
3C
3C
01
3F
00
3F
01
3C
00
3F
05
02
00
3D
3D
3C
3E
3C
03
05
3F
00
04
3E
02
3C
04
3F
01
3B
00
00
3D
3B
3E
04
3F
00
04
03
05
05
00
00
05
3E
00
00
01
3F
3A
3F
3C
3C
01
00
3F
00
00
3D
3A
3D
02
0A
0F
05
3A
39
00
11
0E
09
3C
03
3B
06
00
07
00
3C
3E
3A
39
01
04
02
3B
01
3C
3A
3A
05
3E
3A
01
04
04
3F
02
09
08
02
3C
35
0C
0C
01
00
38
04
00
06
04
3B
3E
00
03
38
3B
03
08
02
3C
3A
39
00
39
3B
3F
04
08
3E
3B
37
0D
12
0B
02
35
3B
03
06
08
00
00
06
01
02
3B
05
0A
00
05
3E
02
01
3A
3C
00
39
3B
3E
00
00
3B
00
08
00
04
39
39
0D
15
07
39
36
00
0C
0F
02
3D
3E
03
01
01
04
00
3F
01
03
3B
07
3C
00
05
3D
00
00
00
3E
01
3F
00
04
04
3F
3E
3D
00
00
01
3F
02
00
01
05
00
00
3F
03
3C
3E
00
03
3B
00
01
04
02
04
00
3B
00
03
00
00
05
3C
00
01
01
3F
3E
03
01
01
00
3D
02
3E
3D
3E
3C
3C
00
3B
03
3C
01
02
3E
01
04
3B
00
07
05
00
00
3D
3F
37
3F
03
0B
3E
00
38
00
02
0C
0B
3A
00
3C
04
00
01
02
00
09
04
3D
00
03
00
3F
00
3B
3E
06
3E
3F
3E
38
37
3F
3F
3E
06
00
01
3E
38
00
07
0E
3A
3B
00
06
0E
08
3D
00
07
00
03
01
05
07
3C
04
3A
3D
05
00
00
3F
04
3E
3C
00
05
04
02
3B
02
3F
3C
3E
3C
3E
02
04
3C
01
01
3D
3F
3D
3D
04
04
01
3F
3E
01
3C
3D
02
03
00
3E
01
02
3B
00
3C
3F
03
3C
3E
00
01
03
00
04
06
04
3E
3C
02
00
3D
02
3E
00
04
04
00
01
02
3F
3D
04
3C
01
3F
10
03
0D
39
2E
05
3E
05
3D
05
07
0C
05
3E
02
02
3B
3A
3D
0D
00
00
3B
3E
37
3E
06
03
05
06
00
3E
04
02
10
3F
00
3C
3B
00
3E
3D
3E
05
00
01
3D
3F
03
04
00
3C
05
3D
3E
03
01
00
03
02
05
04
01
04
3B
3D
3D
3F
04
00
00
00
3E
3F
04
3D
01
00
05
3E
3F
3D
00
3D
3D
00
00
02
01
3D
3B
3C
00
00
04
04
05
04
04
00
02
00
3C
01
05
3E
04
3D
3F
05
3A
05
0D
0A
04
39
09
07
3B
3F
35
00
09
3B
3A
06
3F
3C
00
3F
01
05
02
00
08
06
08
00
39
00
3F
07
08
0D
3C
3E
02
04
00
3D
01
00
3E
04
00
05
3F
03
00
3E
04
3C
00
01
00
3E
3F
03
00
3E
3F
3D
03
3C
3E
00
04
3C
00
3D
04
04
03
3F
3D
3E
3F
02
00
04
3C
00
3C
3C
3D
00
3C
00
3F
3E
04
3F
3C
03
3C
00
3D
02
02
00
00
3D
3D
02
3D
3F
04
3D
04
3C
01
04
03
3C
01
08
02
00
34
03
06
0B
00
0A
2E
00
00
01
07
0A
37
3C
04
06
0A
0D
3C
3F
37
02
06
0B
01
3A
08
38
36
08
3D
02
02
02
04
09
07
39
02
04
36
05
3B
07
00
00
3D
04
3F
33
07
04
09
07
00
3B
3D
00
05
04
06
01
3C
02
3D
09
0A
3D
06
0C
3C
04
3A
00
05
01
3B
00
39
00
00
05
02
04
00
3F
0A
09
08
02
3A
38
3B
02
00
0C
00
02
00
00
03
07
37
3C
3F
09
07
3D
37
3F
00
06
06
07
35
01
05
05
01
07
34
3C
01
07
09
0D
00
3D
3F
02
0A
0B
04
03
3D
01
3F
04
3E
00
01
3C
01
02
00
3C
3B
3D
3C
02
3F
3F
03
00
3D
01
02
3E
01
3E
3C
3D
3E
03
04
3D
03
3E
00
00
01
00
3B
01
3B
05
05
3C
02
03
3D
01
3E
3D
3E
3E
3D
00
05
01
00
3B
02
04
00
05
05
01
3C
3F
3F
