22
6E
5A
7C
7D
01
05
08
7C
11
15
10
05
7C
1B
0F
78
6C
05
03
08
6C
1D
71
02
7A
78
10
18
6F
00
14
1B
68
02
12
13
66
7F
5D
69
01
1C
0B
6D
16
00
6B
73
1E
79
20
01
6B
11
71
19
12
58
72
7F
0C
16
04
67
18
79
26
77
04
1D
0E
4E
77
02
12
1F
16
18
79
16
15
0B
47
53
20
77
7B
22
19
7C
54
62
5F
77
16
7D
0E
4B
02
74
64
46
05
06
4C
76
5B
25
60
6C
17
78
6D
7E
60
6B
6A
0D
04
72
20
00
74
0A
68
65
30
67
0F
24
4F
7C
0E
4F
68
21
4A
72
61
5E
44
63
06
71
70
02
07
1D
73
69
1B
51
5F
06
0A
03
10
76
60
67
75
19
77
7D
20
23
21
09
21
00
15
68
04
71
05
06
68
07
0B
69
20
64
05
62
5D
10
02
7A
79
03
65

